#version: hephaestus-export-1
Ġ t
h e
Ġ a
i n
Ġt he
Ġ o
e r
Ġ w
Ġ s
r e
n d
i s
Ġo f
o n
a t
e d
e n
i t
Ġ b
Ġ f
Ġ c
Ġ h
o u
a r
Ġ m
o r
in g
e s
Ġ p
Ġa nd
Ġ in
Ġt o
a n
Ġ d
l l
Ġt h
a s
Ġ l
r o
i c
Ġ n
u t
i on
l e
Ġ e
Ġb e
Ġ he
s t
Ġ g
en t
c t
Ġ re
l y
a d
o m
a l
it h
g h
o t
v e
Ġs t
c e
s e
Ġw h
r i
Ġw ith
o w
i m
Ġo n
Ġ is
e t
Ġ it
Ġth at
i d
Ġ T
Ġf or
Ġh is
a m
l d
Ġ u
i r
v er
Ġw as
Ġ I
. .
u r
Ġa s
a y
gh t
Ġ P
Ġ y
Ġa t
c h
t er
Ġ A
Ġa n
e ct
at ion
Ġ S
i ll
a in
Ġ H
Ġ "
Ġh a
he r
Ġn ot
Ġb y
Ġy ou
Ġo r
ic h
Ġs u
Ġs e
Ġc on
a ll
i f
u l
r a
i l
ro m
ĠT he
Ġwh ich
o o
e m
p p
Ġ G
t h
es s
Ġ C
Ġs h
u s
Ġth is
k e
Ġh ad
Ġc om
e l
Ġ v
Ġm o
Ġ M
es t
Ġ 1
b le
g e
i ght
' s
q u
Ġf rom
Ġ B
Ġn e
Ġw or
Ġe x
er s
Ġa re
re s
is t
o l
b er
Ġst ar
ou ld
a c
.. ..
o p
Ġp ro
e ll
ou s
u m
Ġh im
ar d
Ġs o
Ġw he
i ve
Ġha ve
a nd
u st
ou nd
Ġ W
at e
a p
Ġa ll
Ġd e
as t
o s
Ġ F
Ġb ut
j ect
er e
as s
Ġa l
re d
u n
Ġ r
Ġu p
Ġ L
ou r
an t
t her
Ġon e
Ġs a
Ġwor k
Ġs p
i e
Ġc h
a k
- -
Ġw ill
ou t
or t
Ġw ere
e ar
ĠP ro
Ġhe r
om e
Ġwh o
Ġ N
i g
n t
i v
ut en
u re
ber g
uten berg
Ġ k
Ġin t
Ġw e
Ġm an
Ġ (
Ġthe ir
a g
it y
on g
Ġa r
Ġ O
at ed
Ġ D
Ġa b
a ble
Ġd o
, "
ver y
c c
Ġm e
. "
Ġd is
an ce
in e
Ġ E
oo k
Ġn o
p t
ou gh
re at
ĠG utenberg
Ġo b
Ġp l
p er
Ġthe y
it t
in d
ar t
am e
Ġa g
â Ģ
T he
Ġcom p
i es
r y
oo d
Ġo ut
Ġbe en
Ġ R
ĠPro ject
Ġc an
âĢ Ķ
Ġthe m
Ġp er
Ġf e
Ġit s
ĠP ut
Ġt w
Ġ en
c i
u d
Ġan y
o re
a ce
! "
v en
n am
he d
is h
Ġl e
Ġsa id
f f
o nd
p l
ation s
o st
Ġa pp
id e
Ġu n
en ce
ar y
Ġstar s
t ain
all y
Ġwhe n
Ġ ro
ing s
Ġl i
ĠPut nam
Ġo ther
ar k
e nd
ri ght
ĠH e
se l
Ġth an
Ġw ould
Ġh as
Ġint o
a b
g l
Ġu s
Ġa d
o se
Ġ im
on e
ou nt
Ġt im
Ġf l
o d
ĠI t
Ġmo re
a re
m ent
Ġc l
Ġm ay
Ġt r
Ġs ome
c l
i re
Ġthe re
0 0
ur n
c k
Ġg l
w n
ion s
ow n
re e
Ġd ist
i le
Ġ qu
.... ....
Ġm y
a ke
e p
a u
Ġk n
p h
Ġg reat
Ġup on
ad e
f ter
Ġab out
r on
ay s
Ġs m
u ll
Ġg r
a ch
i an
Ġ very
ac k
Ġa cc
Ġe y
le ct
ri b
o ll
ou ght
in t
en er
v ed
an g
Ġo ur
o g
Ġtw o
h ing
nd er
h at
Ġ if
Ġg o
Ġ Y
res s
w ard
Ġ 2
Ġ U
a ge
itt le
or d
Ġfor m
Ġthe n
i z
Ġl ittle
Ġf ir
Ġcom m
Ġl ook
Ġli ke
Ġtim e
Ġs he
it e
es c
u e
Ġp re
Ġthe se
a ct
Ġa fter
Ġp art
sel f
Ġha nd
Ġa m
Ġre m
ĠI n
Ġc op
Ġon ly
a v
Ġm en
in k
Ġo ver
Ġcon st
i ed
Ġm ade
Ġat t
f or
t e
u b
i ly
ic e
t y
Ġag ain
w e
c es
f ore
s er
Ġ j
Ġp o
ĠT h
f er
r it
Ġm ust
Ġfir st
Ġb l
Ġp os
Ġse e
? "
s o
f ul
u ch
Ġyou r
t he
Ġre p
or s
o ld
Ġth r
Ġn ow
Ġbe t
Ġwh at
er m
it ion
Ġto o
an s
Ġe lect
Ġne ar
Ġu nder
f t
Ġy ear
Ġin ter
ow er
Ġsh ould
Ġs c
at es
Ġin d
Ġbe fore
Ġsu ch
Ġof f
Ġcon t
s i
res ent
Ġwhe re
r u
at er
Ġmo st
Ġre s
ic k
Ġim p
em ent
) ,
c o
w ith
or n
Ġl ong
Ġ J
at ter
Ġwork s
Ġbe ing
i ous
gl ass
c ed
re n
Ġc ould
if e
Ġob ser
ic al
Ġe ven
ener al
Ġcop y
d er
a il
t ed
is s
Ġthr ough
Ġse em
a ir
as e
Ġ V
Ġm uch
ig n
o y
Ġp ass
l ed
o ve
Ġ 3
Ġo ld
Ġe ar
Ġsu n
E R
d u
ĠB ut
i gh
it ed
Ġg ood
he s
ct ion
ĠS t
rib ut
a w
Ġcon s
Ġw ell
at her
Ġl ar
oll ow
p s
Ġh ow
w ay
Ġl ight
Ġbe c
for m
Ġre t
Ġwh ile
v ing
en se
Ġex p
with in
u nd
ect ed
r an
Ġp e
Ġman y
Ġconst ell
m er
Ġre g
at h
Ġbe l
ro w
Ġsm all
l ess
u al
Ġf ound
ul ar
c or
re t
Ġf ollow
Ġth ought
Ġse en
Ġ ent
Ġth ose
Ġwith out
ĠI f
a red
n ess
Ġs l
Ġp r
t on
Ġ ra
Ġd own
Ġe m
ron ic
is e
en s
Ġre ad
Ġa c
Ġs ur
Ġhe ad
ie ld
ĠTh is
Ġelect ronic
Ġf ar
Ġd on
Ġd if
ĠA nd
i x
Ġm ill
Ġv is
Ġey es
ot her
or y
ĠA r
Ġc all
ic t
Ġsp e
Ġkn ow
Ġo wn
Ġm et
Ġl ife
Ġsu pp
Ġse c
ul t
Ġpl an
Ġd es
ak ing
c ess
Ġm ake
Ġbe g
Ġhim self
' t
i pp
v ent
Ġf ull
u ri
Ġ ke
Ġc o
i al
ot h
ĠT H
Ġch ar
Ġw ay
Ġf ace
ound ation
ĠF oundation
Ġ '
Ġs ame
ce pt
ĠN e
ĠY ou
Ġyear s
Ġ 4
Ġ 5
Ġb ack
Ġar m
Ġo per
Ġs et
we en
he n
Ġd ay
Ġst ill
Ġpro v
Ġapp ear
er ed
ar z
Ġmo on
Ġne w
i ld
Ġ [
Ġgl ass
i p
n e
Ġp ower
Ġsh ow
Ġin st
i b
Ġth ree
ĠC h
ĠB rit
Ġ *
re ad
Ġal so
er tain
Ġin cl
ent ly
ri ed
op e
c y
Ġt urn
Ġd et
ment s
a ve
Ġc ount
Ġ( [
Ġbet ween
Ġl ast
ĠA l
Ġey e
o c
Ġs k
Ġd id
ain t
Ġdist ribut
erm s
ĠBrit ish
e ver
Ġm ap
Ġre c
Ġa ct
Ġc ent
ro s
Ġu se
Ġdis co
au se
Ġc ar
Ġe very
Ġre ce
Ġinter est
Ġplan et
E N
Ġc ame
Ġe nd
ĠS within
ĠG eneral
Ġpo int
Ġa way
is hed
at ing
Ġf ield
Ġp ur
Ġhe re
om et
ect ion
ra ct
Ġob ject
i a
it er
Ġe ff
Ġre qu
Ġsu b
Ġlar ge
i er
Ġw ar
on s
Ġb ro
ĠA d
in ce
Ġde f
os ed
d s
Ġs er
Ġb r
Ġb right
Ġm ight
Ġex t
00 0
Ġcomm and
Ġm in
Ġp ar
iv ed
ud e
I t
am p
Ġan other
Ġfe et
Ġs ent
en ed
Ġf ind
Ġm id
Ġth ink
Ġn um
al f
ain s
Ġo cc
Ġs ay
or k
Ġd ays
ĠE n
Ġconstell ation
Ġt erms
ri er
Ġor der
Ġ1 7
Ġen em
m an
Ġ K
Ġs at
Ġp ers
Ġn ight
Ġre f
, --
W hat
a ut
l ing
Ġs il
Ġc our
ar ch
Ġl aw
Ġwith in
........ ........
ros s
m ost
at ure
ĠO F
ab ly
Ġad d
n er
r ic
Ġ right
Ġo p
Ġin c
Ġth ough
ent s
Ġy et
ĠTH E
Ġoper a
b ul
u res
Ġp h
Ġne ver
ie w
Ġcall ed
i red
Ġl et
ĠS cor
c ul
k ed
t ing
Ġd ou
if ic
ra ph
ĠEn gl
d en
t le
Ġc ol
Ġm il
ag n
a z
Ġ 6
Ġc ap
Ġp resent
as ter
ĠU n
Ġdif fer
x t
Ġl ess
Ġfe w
Ġincl ud
a ven
Ġf our
Ġle ft
Ġc le
Ġh und
Ġh alf
et a
Ġhund red
l es
v es
Ġb re
Ġb ri
Ġf in
ĠH arz
Ġag re
Ġagain st
ĠAd am
i ble
p e
in ed
ar s
Ġd esc
Ġon ce
ĠC on
Ġad v
N D
Ġ 7
Ġcom e
Ġ1 8
Ġcopy right
Ġret urn
Ġenem y
B ook
g g
Ġt el
en e
Ġc ertain
as hing
ut h
al s
Ġtel esc
H e
I I
i ver
n g
Ġ _
Ġd ire
Ġe qu
ve l
Ġcon f
Ġpl ace
Ġ 9
Ġs ide
Ġs omet
Ġf ri
Ġth ou
Ġst r
ie f
ak en
Ġ ri
Ġs y
it her
Ġc he
ar i
Ġg iv
un g
Ġj ust
Ġseem ed
Ġp a
Ġst e
a x
in es
it s
Ġe Book
Ġre d
ĠI nd
Ġmo d
s w
w ays
â Ħ
he re
Ġh igh
Ġab ove
ond er
Ġrep resent
ipp in
âĦ ¢
O N
l ic
o ck
p ect
Ġf ore
Ġhe aven
Ġfor t
Ġ1 0
I n
at ive
Ġf o
ou se
Ġn or
ust r
Ġear th
Ġagre ement
O R
Ġa ir
ĠS e
Ġyou ng
Ġsh all
Ġwho se
Ġen g
ren ch
Ġsec ond
. --
k s
Ġw ent
Ġs w
as on
Ġas s
Ġde p
Ġob tain
Ġlook ed
ĠSt ates
T h
c hed
n ing
y ing
it ude
ur ing
ĠThe re
Ġwor ld
ap s
Ġr ound
od y
au ght
Ġfri end
Ġh our
Ġn ame
Ġe ach
Ġal most
Ġdisco ver
r ist
Ġ 8
in ci
Ġb oth
Ġd ark
ous and
Ġus ed
Ġmid d
ashing ton
a j
i am
u p
Ġm ark
Ġth ousand
Ġbe h
ĠN o
si ble
ĠUn ited
Ġb o
Ġf ell
Ġm on
Ġg ive
ĠM r
ac hed
Ġal ways
Ġro om
Ġnum ber
T I
g et
k ing
u red
Ġs ou
Ġh or
Ġm ount
ll i
ter ed
Ġfl our
ĠAr ch
Ġcount ry
ĠScor rier
A R
Y ou
m ed
n ot
Ġs ol
Ġf act
Ġre st
Ġan sw
Ġpro du
Ġso ld
iter ary
b t
p le
r ing
Ġm agn
Ġl atter
el t
Ġv iew
Ġso on
Ġobser ver
iss ion
t en
er r
ic ense
Ġg et
Ġha ving
Ġse ver
Ġtim es
Ġhand s
Ġoff ic
Ġmin ut
l i
Ġ ir
Ġwh om
ĠArch ive
e y
at ch
ent ion
Ġpro t
itt ed
Ġacc ess
Ġbet ter
Ġhow ever
Ġs im
Ġf am
an ge
Ġbe aut
op le
ĠL iterary
Ġgr ou
Ġnear ly
Ġcons id
aj or
a pp
in ter
re w
it ions
Ġm ar
Ġst and
ĠW ar
ĠW ashington
ĠE d
ĠR e
Ġrem ark
ret a
Ġpers on
s ess
Ġt ra
Ġw ater
Ġb est
id ed
am m
ĠI s
ĠA s
ĠF rench
Ġdon ations
E S
I T
u se
Ġt re
Ġf ree
Ġc ir
Ġin f
ad es
ur y
ĠA mer
Ġne bul
Ġme ans
Ġcomp an
Ġtoo k
ĠNe w
Ġinterest ing
ĠInd ian
ĠAmer ic
C H
a im
g er
l s
Ġ ill
Ġa ff
Ġw a
Ġf ig
an ces
Ġth y
ot s
Ġu nt
Ġcon tain
el s
ĠW e
Ġpe ople
Ġcour se
c er
u ally
Ġc or
Ġh old
Ġm ind
Ġp ut
Ġin v
ce ed
ĠT o
ĠP ippin
Ġar r
end ed
Ġtr ad
Ġheaven s
A N
o z
Ġt aken
Ġe ver
Ġg ener
ent y
Ġsu ff
ag raph
Ġdist ance
Ġpos sess
Ġsk y
Ġpar agraph
rist ian
Ġf ather
Ġd ra
Ġfor th
Ġpro b
ate ly
Ġcl ose
ull y
iz ed
Ġturn ed
ĠEd ward
w w
Ġh ome
or g
Ġp le
Ġp rom
ro wn
Ġg ave
ow s
Ġv ol
est ion
ag es
Ġar t
. ,
g in
Ġ ed
on t
it ies
Ġh ard
Ġh ouse
Ġth us
Ġg ra
Ġex per
op s
Ġkn own
oz si
. ]
I N
d den
p ar
r um
Ġh um
ar m
Ġm om
Ġto ward
Ġst re
Ġsu dden
Ġsh ort
Ġdiffer ent
Ġcle ar
Ġdire ct
I S
l ings
s h
Ġa st
Ġs ix
Ġf ight
Ġf ive
st em
Ġg u
et y
Ġnot hing
Ġv o
Ġvis it
Ġinclud ing
Ġdesc rib
B ut
o int
Ġt ake
Ġc are
Ġhe art
ra el
il ity
Ġne cess
Ġwor ds
ol og
Ġwho le
Ġapp ro
Ġtr ans
Ġobser v
form ation
Ġke ep
Ġgiv en
Ġmidd lings
Ġunt il
A P
c he
o ke
p ic
at tle
Ġf ire
Ġm er
Ġp res
Ġth ir
Ġl oc
ot ion
Ġst ate
ter s
em ark
Ġar ound
Ġdo or
ang er
Ġam ong
Ġpos ition
Ġfollow ing
Ġrece ived
Ġlaw s
Ġgrou p
c hes
Ġo pp
is on
en ry
Ġc ond
Ġc ost
Ġg as
Ġne ed
Ġpl ac
Ġper m
Ġsever al
a ul
h aps
o f
s on
Ġw r
Ġw ind
Ġw inter
Ġp ost
em pt
Ġ1 3
ak es
Ġdo es
Ġtelesc ope
Ġsy stem
g th
i ers
Ġs ight
is ed
Ġf aint
Ġh ast
Ġe as
id ent
ĠH enry
Ġha pp
ĠThe y
ĠG reta
ĠM ajor
Ġ1 2
Ġal ong
Ġsa w
Ġbec ause
ĠEngl ish
ustr ation
n ed
Ġm ain
Ġin s
Ġd el
ad y
ter n
ill ed
Ġne xt
Ġex ist
Ġtw enty
ph a
read y
Ġcir c
! '
y ll
Ġf ur
Ġm atter
Ġg ir
ri d
us ed
Ġr un
Ġch ild
Ġmet h
Ġsomet hing
Ġtrad emark
] )
l and
Ġw onder
Ġb u
Ġc oll
Ġre l
Ġre ason
ĠP aul
ĠA t
ĠH is
um p
ust er
ĠF ort
Ġper form
sel ves
Ġimp ort
Ġbel ow
ĠIs rael
Ġmom ent
f ully
y s
Ġw all
Ġw ant
Ġf ine
Ġth ings
om p
Ġst ood
id es
am es
ĠO n
Ġcomp le
Ġgo ing
ib yll
? )
f ic
g r
w hat
Ġw om
Ġw rit
Ġs ing
or m
Ġp at
ow ed
Ġor d
Ġsu cc
ĠC ol
ĠC ap
Ġex h
Ġal ready
ak s
Ġrem ain
Ġcont in
Ġbeg in
Ġpur p
Ġdou bt
Ġmil es
Ġir on
Ġconsid er
e ared
g utenberg
i or
u ed
in ation
Ġs ince
at s
Ġm ach
Ġl and
ri m
ay ing
Ġpro p
Ġk ing
Ġen ough
orn ing
Ġbeg an
Ġop en
Th is
Ġbeaut if
Ġarr ang
I ll
T ER
a le
b s
e b
in ary
an k
ic i
Ġsu per
Ġex pl
ol es
ĠW hat
ort s
ĠR ozsi
Ġpo or
so ci
Ġsl ow
ĠCh ristian
Ġstr ong
Ill ustration
e w
g ed
i ri
m b
y l
Ġo ri
Ġp ict
Ġl im
Ġl ear
Ġre pl
al t
th ough
Ġ1 1
Ġpro cess
Ġde ep
Ġk ind
Ġper haps
Ġad m
ĠY ork
iz e
ub e
Ġbl ood
ix ed
Ġeff ect
C T
E D
o on
in ess
er y
Ġc al
Ġto get
Ġl ost
ut ion
Ġst ri
Ġwh ite
Ġv al
Ġpro per
Ġde v
ĠL icense
iv id
ĠO r
ress ed
Ġseem s
Ġconstell ations
Ġmeth od
Ġtoget her
] ),
l or
o b
s ion
Ġthe e
en ces
Ġc e
Ġc ut
Ġc ur
Ġe ither
ri v
ri pt
et s
if ied
il t
ast ings
ther n
Ġtr ue
cl aim
Ġpart ic
Ġinst rum
Ġbr ought
Ġnebul a
Ġple as
Ġsucc ess
Ġori gin
R E
e c
Ġt em
Ġs ign
Ġb ody
Ġf if
Ġf av
ou n
Ġm orning
Ġp ap
Ġl ine
Ġl ater
Ġre du
Ġst ru
ĠS he
ĠC l
Ġmo ve
Ġdis pl
Ġfe el
Ġ2 0
Ġpass ed
Ġbel ie
Ġac ross
Ġbeh ind
Ġmon th
Ġsudden ly
iri us
e x
Ġt ail
Ġw ww
Ġs we
ic ally
Ġhe ard
Ġwor th
ĠW hen
un e
Ġr is
Ġfe e
Ġro ll
Ġqu estion
Ġacc ount
Ġgo ld
Ġform er
Ġvo ice
ĠCol on
g an
m y
Ġt ro
it es
om m
im es
ĠM ar
Ġim ag
ran ge
Ġke pt
Ġprob ably
e e
f ace
Ġt ell
Ġb ra
Ġm aking
Ġd ri
Ġe v
ĠS ibyll
ĠS irius
ound ed
Ġal one
Ġcomp ly
Ġus ing
Ġpos sible
Ġres pect
uri ous
Ġocc as
Ġbri lli
Ġfur ther
S within
c ing
e ed
i od
in ing
Ġb attle
Ġd est
Ġn ature
Ġe l
Ġg ent
Ġst ud
Ġfor ce
th ing
th olog
Ġwhe at
ak ed
Ġle ad
Ġlook ing
Ġind ic
Ġcent er
Ġcol or
ĠCon n
Ġpa id
Ġmark ed
Ġfig ure
Ġbeautif ul
Ġpartic ular
O U
b r
Ġof ten
Ġd one
Ġre ached
Ġsu m
Ġse par
em ber
pp ed
ĠW ith
The re
Ġthem selves
Ġtr uth
act er
Ġind ivid
Ġres ult
Ġreg ard
Ġvis ible
Ġrequ ire
pe ci
Ġsold iers
Ġpurp ose
soci ated
i ar
i um
t o
w h
Ġt e
Ġa w
Ġc re
Ġp ain
Ġst range
ver n
ĠP le
Ġcon n
Ġv ari
Ġde ath
Ġr ather
ant s
Ġint ell
Ġme as
Ġper iod
ci ence
Ġqu ite
ron om
Ġacc ord
ĠWar ner
Ġdescrib ed
Ġnecess ary
Ġtro ops
Ġgent le
L A
R O
w ork
Ġt ax
at us
Ġb ar
Ġf ut
Ġm us
Ġd ro
Ġd iam
Ġg eneral
Ġre el
al ed
se qu
ĠA ND
ĠH astings
Ġne igh
Ġso ft
Ġch ange
ĠPro v
Ġcan not
Ġro se
Ġcl uster
av ing
Ġatt ention
Ġelect ric
Ġac cept
Ġchar ge
Ġprov ide
Ġnor th
Ġdiscover ed
Ġansw ered
Ġindivid ual
Ġneigh b
p r
p id
Ġ |
Ġ es
it u
Ġb us
Ġc ause
Ġh ig
Ġp ub
Ġp uri
as ed
Ġe ight
ot t
ĠA n
ĠH err
Ġor gan
ĠB y
ĠW h
Ġde c
ĠN or
ry ing
pl oy
Ġli ps
Ġqu ick
Ġsur face
Ġdif fic
Ġco ver
Ġmil it
ĠSe a
E M
I L
k y
o h
u ous
Ġ esc
Ġw al
is m
Ġf ac
Ġc a
Ġc r
ar ing
Ġm ed
an y
Ġth ing
Ġl o
Ġn aked
st er
st and
Ġit self
th at
Ġex cept
Ġag ree
Ġle ast
Ġother s
Ġfl o
Ġem ploy
Ġappear ance
Ġref und
Ġinc re
Ġlet ter
ĠEngl and
Ġfo ot
Ġeng ine
U T
c ury
t a
t s
v ol
Ġ X
Ġt en
Ġt al
Ġf elt
Ġp ump
Ġhe l
im ent
am ed
Ġas ked
Ġas sociated
ĠC an
ac u
Ġwhe ther
ĠF or
iv ing
Ġcomm on
Ġpre t
Ġfollow ed
Ġarm y
Ġdou ble
Ġmod el
Ġsou th
Ġminut es
oles ke
ĠOr ion
ript ion
Ġoccas ion
A nd
I f
P ro
X iv
i ades
u g
Ġ 0
Ġt able
in ct
it ation
Ġb oy
Ġh ur
Ġm ist
Ġl ay
Ġg one
ad ed
Ġst o
et er
ĠB oleske
Ġch ief
Ġdis e
itt en
ck s
Ġgr ound
og n
te en
Ġchar acter
Ġpur s
Ġser v
Ġsat ell
ĠeBook s
ĠIndian s
Ġobserv ations
Ġloc ated
Ġplac ed
Ġpuri f
T H
_ ,
a ust
e k
i res
Ġt er
Ġa p
Ġa ble
Ġb ir
Ġf all
Ġh on
ou d
Ġp ress
le nd
et h
ich ard
un ity
Ġsp ring
iv es
Ġdo g
Ġdis c
Ġkn ew
Ġgreat er
air s
Ġpr inci
Ġsupp ort
Ġcommand er
med i
amm a
Ġwom an
Ġfut ure
Ġes peci
S E
a wn
f e
m ings
s p
y ond
Ġ est
er ing
on es
at or
Ġb ed
Ġf air
Ġm ur
Ġm ere
as h
Ġl ow
Ġbe yond
Ġg re
ĠT re
am s
ĠH ill
Ġsu gg
oo l
us hed
Ġv ar
ap e
un te
are nt
ep s
Ġbec ame
Ġsl ight
Ġste am
aught er
Ġhour s
Ġremark able
Ġimport ant
Ġinstrum ent
Ġbrilli ant
ĠPle iades
ĠProv inci
A h
I C
T R
W e
d e
he m
Ġc ase
Ġm ut
Ġp ast
Ġd iv
Ġd uring
Ġl en
Ġl ove
Ġe t
Ġe le
Ġe ast
Ġhe ro
Ġre ve
am b
ver s
Ġan im
ĠS o
il ar
em mings
Ġex c
ers che
Ġde g
Ġal though
Ġme an
Ġper ce
Ġim medi
Ġsome what
Ġgo es
Ġam ount
Ġbec ome
Ġret reat
Ġexp ress
Ġobject s
Ġcap t
Ġmagn itude
Ġhum an
Ġast ronom
Ġperm ission
Ġslow ly
ĠBoleske y
Ġsatell ites
Ġespeci ally
ersche l
a id
i us
Ġ z
Ġt ri
Ġw ood
Ġs ir
ed a
en cy
Ġc ra
Ġm otion
Ġd r
Ġd em
Ġd anger
Ġl ady
ic ut
Ġre al
Ġre se
Ġhis t
.. .
ect icut
Ġ1 9
ĠL ord
Ġch ang
Ġme et
itt ing
ind er
Ġcomp ar
Ġapp eared
Ġgr ad
ĠU ran
Ġpre v
Ġpart s
Ġeven ing
Ġdistribut ing
Ġrec ogn
Ġact ive
EN T
Ġfin ally
Ġreturn ed
Ġfell ow
Ġprot ected
Ġappro ach
tholog y
S t
W h
b y
d ay
e en
f act
i o
k en
w ing
Ġ ide
Ġb ran
Ġc urious
Ġm one
Ġm akes
an ced
Ġl un
om en
ri es
id ing
Ġcon cer
us h
Ġv acu
op es
Ġsp ace
ort ion
Ġro y
Ġafter ward
Ġcop ies
Ġatt ract
Ġind eed
Ġlar ger
Ġdisco very
Ġfam ily
ĠAmeric an
Ġwonder ful
H arz
l ight
p or
s ide
u ff
Ġt ou
Ġs le
Ġs ound
Ġs itu
Ġc amp
ar ian
ing ly
es sel
Ġp ot
Ġp ract
Ġg row
ĠP h
ĠA ll
ĠS er
ĠH ow
Ġha ir
il ed
rom eda
qu e
un k
Ġsp lend
ĠO R
ci al
Ġear ly
Ġpe cul
Ġra pid
Ġspe c
Ġappear s
Ġpower ful
Ġmount ains
Ġsuff ici
Ġmer cury
Ġwr itten
Ġwrit ing
Ġarrang ement
ĠMar g
ĠConn ecticut
Ġpub lic
Ġpecul iar
_ _
f ect
s c
Ġt aking
Ġa ge
Ġw est
Ġw ide
Ġw atch
Ġs on
Ġs ch
Ġb urn
Ġc yl
ou th
ou red
Ġhe ld
Ġst ory
ur us
ill iam
ĠH er
ĠH erschel
ĠThe n
Ġsh own
os s
ci ent
Ġle g
ron t
Ġrem o
Ġbl ack
Ġdef ect
AP TER
Ġpict ure
Ġfav or
Ġelectric ity
Ġmed ium
Ġhel p
Ġet c
, '
C h
b it
e g
i ence
n ow
u le
w o
Ġt ill
Ġa v
er se
Ġw ife
at ur
it ing
Ġf urn
Ġc ast
Ġm em
Ġp ow
Ġd er
Ġl ord
ut e
Ġhe ight
ri ved
ain ed
ĠH ung
Ġnot ice
Ġcon ce
ĠW illiam
Ġsa v
Ġdis app
ĠR ichard
ĠY OU
Ġsur pr
hen omen
Ġdistribut ion
Ġsub ject
Ġadd ition
Ġbre ak
Ġequ al
Ġobtain ed
Ġansw er
Ġprodu ced
Ġvol unte
Ġeas ily
Ġexh aust
Ġmonth s
ĠColon el
oh n
Ġlen gth
ĠUran us
Ġmone y
' ve
b ut
e ad
g o
l ine
y ou
at a
Ġc ross
Ġp ay
Ġin vent
Ġd u
Ġl ab
ro du
Ġg all
al ty
Ġv ict
Ġ1 5
os ing
ĠO ne
Ġcomp ut
Ġen c
ff ry
Ġro ad
Ġsm ile
ĠAnd romeda
Ġbro ther
Ġocc ur
Ġorder ed
Ġsomet imes
Ġfore st
CH APTER
IN G
Ġmach ine
Ġpap er
ĠTre ffry
Ġvar ious
ĠHung arian
' m
O n
b ed
m en
r ate
Ġt y
Ġt ube
in s
Ġw id
Ġs ense
Ġb es
Ġb ur
Ġf ixed
Ġh ill
ing u
Ġp un
Ġin formation
Ġd im
ic es
le br
Ġhe at
ay ed
Ġan g
if ying
ĠM ont
est ed
Ġwor d
um in
ive ly
Ġar Xiv
ĠE x
Ġun less
Ġqu ar
Ġsm o
og raph
ru ct
ious ly
Ġpr ison
Ġmill ing
Ġshow s
Ġdet erm
Ġsim ilar
Ġfam ous
Ġpres ence
Ġcomple te
Ġcal cul
Ġce lebr
Ġbelie ve
Ġpret ty
Pro ject
Ġcyl inder
A L
I G
N o
b eta
c ceed
g y
l u
n on
u es
Ġa uth
er t
Ġw ild
re m
Ġf ear
Ġc reat
ou ra
Ġp henomen
Ġto ld
Ġl ie
ro te
le t
Ġg az
Ġre ach
Ġst ra
Ġst ren
Ġwh y
ri age
Ġsu cceed
Ġne g
ist s
Ġpro f
um e
os p
ĠN O
ĠN ay
Ġman ner
Ġab s
Ġim m
au ge
Ġ2 2
Ġcont r
ĠJ ohn
Ġreg ion
Ġread er
Ġspe ak
Ġsupp osed
Ġarm s
Ġref lect
vel op
Ġri ver
TI ON
Ġoffic er
Ġtem per
my thology
Ġdise ase
Ġap art
Ġlun ar
A M
b ody
e or
l ain
r s
u ct
Ġ ver
Ġ ident
Ġa id
Ġs qu
nd ing
en ing
Ġb orn
Ġf r
Ġc orn
Ġm m
an n
Ġd aughter
Ġl ower
Ġg ot
Ġre nder
Ġre fer
Ġst ates
Ġan n
ill a
ĠH emmings
Ġyou th
ĠThe se
us ion
ist ribut
ard s
ap ed
Ġk illed
ag ed
ĠO ld
Ġpre p
av es
ink s
Ġbel ong
Ġprov ided
Ġcar ried
Ġrequ ired
Ġsil ence
Ġhor se
Ġhor iz
Ġminut e
Ġwind ow
Ġpost ed
B ER
R AN
g es
i ps
Ġw ish
Ġw rote
Ġs ays
Ġf ront
Ġc old
Ġh ost
ar p
Ġm ater
Ġd ut
Ġd am
as es
Ġl ed
Ġe vent
ow ing
id ence
ir t
ch an
ĠS p
ĠH ud
il on
pp er
ĠM aster
res h
ĠL ake
Ġsp ir
Ġwe bs
Ġme chan
Ġpl ain
Ġun f
Ġun iver
ab ility
Ġatt ack
Ġatt empt
Ġobser ved
Ġbec om
Ġsur r
Ġsat is
Ġcompan ion
Ġthir d
Ġredu ction
Ġroll s
ĠProvinci als
Ġcelebr ated
ĠHud son
Ġwebs ite
A T
A l
S cor
h ood
l er
m on
m ing
r ance
u ly
Ġa ction
at ched
it able
Ġb ook
Ġf ought
Ġm arch
Ġp air
Ġn ames
Ġhe av
Ġg auge
Ġre vol
om pl
al th
im e
am ber
if y
il ing
oo se
ĠG reat
Ġv ast
Ġ1 4
Ġde ad
ĠL y
ant ly
Ġapp arent
are lli
cl ock
Ġdist ingu
Ġform s
Ġatt end
Ġrep ort
ĠJ une
Ġ3 0
Ġsec ret
Ġ5 0
Ġrece ive
Ġocc up
Ġph r
Ġinclud ed
Ġadv ance
Ġ18 7
Ġrepresent ed
Ġass ist
Ġfriend s
Ġcompan y
Ġdirect ly
Ġexist ence
Ġsing le
Ġadm ir
Ġrequire ments
Ġneighb or
Ġmut tered
Ġhist ory
ĠNay lor
' ll
. '
6 0
8 8
Ġ ve
Ġt ry
he ad
is ion
at ures
Ġb ene
Ġf ail
Ġc ub
Ġh y
Ġm aster
Ġp ie
Ġth ick
Ġn ar
Ġn atur
al pha
ve y
im um
Ġfor g
ĠS ir
Ġsu re
Ġse a
Ġse ven
Ġsh ad
Ġcom b
ĠM il
ĠF OR
ĠL I
ant ic
Ġsp ect
Ġsp oke
-- "
ĠD o
Ġany one
Ġpre ci
ily ard
Ġpr ince
Ġread y
Ġext ent
Ġ17 7
Ġsil ver
Ġph ys
Ġbre ast
li ance
Ġopp ort
Ġgir l
Ġide a
A G
C E
l ied
r is
Ġ /
Ġ Z
Ġ ut
re g
Ġf re
Ġc aught
Ġp aint
Ġd ied
ro y
Ġbe ar
ĠI N
ĠP RO
ch ing
Ġsu l
Ġv essel
ĠM ars
ol ved
ac ity
ous ly
ĠD e
end s
ang u
ors es
Ġpass ing
Ġsun s
Ġread ily
Ġac qu
Ġdistribut e
Ġcour t
Ġche ck
Ġoffic ers
IT Y
Ġfree ly
Ġstri king
Ġris ing
Ġbra ve
Ġmilit ary
Ġstren gth
2 2
A B
A S
S he
e ated
n own
o ard
p ond
t ic
Ġt ried
in i
Ġw ounded
at ic
Ġm ass
or ies
Ġp age
Ġd ate
Ġl icense
ro o
Ġhe ar
Ġst atus
im ents
ĠA N
ĠA fter
ĠS T
ĠS U
Ġsh ot
Ġsh arp
ĠM iss
ol f
Ġstar ted
ĠW AR
Ġde velop
un t
Ġch amber
ĠN ot
Ġcomp liance
Ġro w
ĠIt s
Ġcl ot
Ġacc omp
Ġpre vent
Ġunder stand
Ġsc ene
si b
Ġimp os
Ġreg ular
row s
Ġem ul
Ġfar m
Ġmill s
Ġmet al
Ġdes ign
ipp ed
Ġdet ected
Ġcar ry
Ġplanet s
Ġ17 5
Ġtelesc opes
Ġdire ction
Ġri d
Ġpa le
Ġsold ier
Ġhold er
Ġgir ls
Ġbu ilt
Ġconsider able
Ġrepl ied
Ġorigin al
Ġaccept ed
Ġhig her
Ġcover ed
Ġflo or
awn ey
Ġmur m
Ġhoriz on
Ġmater ial
A s
L E
W ith
W ay
W hen
h ab
n al
o red
v al
Ġs ize
re nt
is c
at ine
en for
Ġb rom
Ġf le
Ġf ly
Ġc ity
Ġc ried
Ġto wn
Ġd ue
Ġd rew
Ġl ate
Ġl oss
Ġn ine
Ġg erm
Ġre ally
ad ing
ce nd
Ġu pper
ĠH ilyard
Ġcon v
Ġsh ining
Ġmo ved
Ġstar ry
Ġpro ved
ust om
Ġde cl
ĠF rom
ĠL e
Ġcan non
Ġle ave
Ġapp lic
Ġus ual
Ġdist ant
Ġdist inct
Ġform ing
ĠIn formation
Ġshould er
Ġlong er
ĠV ir
Ġprov iding
Ġdistribut ed
Ġeff orts
ĠK ing
Ġop ened
Ġdesc ription
Ġmount ain
Ġfight ing
Ġthir ty
land s
Ġcontin ued
Ġfeel ing
Ġdiffic ult
Ġvacu um
Ġremo ved
Ġauth or
ĠMil ky
Ġphys ical
Ġbrom ide
T hat
b e
b on
i ant
m osp
n o
o ber
p ed
p ro
u ght
w ise
w here
y te
he st
Ġa ch
Ġs ort
is ter
en ess
Ġb ad
Ġb all
Ġf a
ar l
an cing
Ġd re
Ġd om
Ġwh is
am mer
ĠS h
Ġse arch
Ġcon cl
ĠG eor
Ġcom ing
el atine
ĠM in
Ġex act
Ġstar t
um b
Ġall owed
Ġde al
ĠF ors
ant age
Ġwork ing
ig ence
ĠO f
Ġag o
Ġfe es
Ġfe atures
Ġun c
are t
Ġgl im
Ġrem ember
ail s
led ge
Ġent ire
Ġem b
ens es
Ġrec ord
Ġevery thing
Ġbro ad
Ġext rem
Ġsil ent
onder og
Ġfo e
Ġdep art
Ġbeh old
li ke
Ġprot ect
Ġtre es
ĠAmeric ans
Ġed ge
Ġeas y
Ġord inary
Ġpleas ure
Ġresult s
Ġintell ect
Ġbus iness
ĠNor th
Ġemploy ed
Ġcompar ative
Ġvolunte ers
lu ence
Ġcontr ast
Ġphr ase
Ġcub ic
Ġimpos sible
ĠGeor ge
ĠFors yte
M y
e ks
m ber
p it
is p
Ġf ing
Ġc row
Ġh orses
ar ily
Ġm ine
Ġm other
Ġp en
Ġin form
an c
Ġd iver
Ġl ist
ic onderog
al m
ri ble
ĠT y
ĠT iconderog
Ġfor ward
Ġat mosp
Ġse l
il s
il os
ĠG o
Ġmo der
ĠB et
ĠB ost
Ġpro ceed
ell ed
ell ow
um ph
Ġde ar
Ġar rived
ĠD r
Ġdis k
Ġdis p
Ġad vent
od ies
Ġfir m
Ġpart y
Ġbl ue
ru pt
ru ction
atter ed
ĠV en
Ġexp ect
Ġpr int
Ġdes p
Ġshow ed
Ġadd ed
ĠScor p
ĠMr s
Ġcontain ing
Ġdra wn
Ġhard ly
Ġexper iment
pic uous
Ġcirc um
Ġwall s
Ġsing ular
Ġrepl ace
Ġdest roy
Ġconn ected
Ġdiam eter
Ġsto pped
Ġav ail
erse us
Ġcorn er
Scor rier
Ġheav y
Ġaccomp an
enfor ce
ĠTiconderog a
ilos op
ĠBost on
H is
S ection
V E
b ers
d ra
o om
o ot
w est
er ous
Ġw on
Ġs n
Ġs or
it ter
Ġb i
Ġb ound
Ġb odies
Ġm ax
al ity
im ate
Ġfor ty
ill e
ĠH ere
Ġcon sequ
ĠC rown
ĠC omm
Ġcom es
ight s
ĠB unk
ist ed
ac le
os ity
Ġr an
Ġr ich
ĠL ong
ĠL ond
Ġint rodu
ag er
ĠD on
Ġdis claim
âĢ ¢
Ġout side
ĠR E
âĢĶ "
Ġen er
Ġle aves
Ġus er
Ġ2 5
Ġform at
Ġcons picuous
Ġsmall er
ĠAl pha
Ġcle an
ĠCon t
Ġfig ures
Ġgener ally
oint ed
Ġpres er
Ġchild ren
Ġcoll ection
Ġord ers
Ġlear n
Ġlear ned
Ġmethod s
Ġdispl aying
Ġswe et
Ġworth y
Ġparticular ly
Ġmere ly
Ġexpress ion
Ġchang es
Ġuniver se
Ġbecom es
ĠWAR RAN
ĠBunk er
ĠLond on
* *
E CT
O ld
] ,
a e
a h
g ar
n ight
o x
u ke
u gg
v iew
Ġ er
Ġt end
Ġo x
Ġw ine
Ġs itting
Ġh ope
Ġm outh
Ġin fer
Ġin hab
Ġn in
Ġbe ard
Ġst ones
Ġon line
am ent
ur g
ĠP oint
ch o
ch ief
ĠS ection
ĠS arelli
if orm
el ve
Ġ1 6
Ġex claim
res pond
ac y
Ġpro ject
and er
ate ver
ĠN ow
ĠD IS
Ġper fect
Ġgreat ly
Ġgreat est
ian s
Ġacc ompl
ang ers
Ġform ed
the re
Ġsc ar
Ġcont act
Ġimp ro
Ġcopy ing
Ġspe cial
Ġknow ledge
Ġthink ing
................ ........
II I
Ġsy m
Ġclear ly
Ġbu ild
Ġperform ed
Ġswe ep
Ġgentle man
Ġpress ure
Ġgre en
Ġperce ive
Ġimmedi ate
Ġgrad ual
Ġrecogn ized
Ġsplend id
Ġfr ame
Ġnar row
Ġsul ph
angu age
roo k
ĠAN Y
Ġwhis per
M ER
T o
Y es
b b
g ress
i en
i ent
v ille
w he
w ell
Ġ -
Ġt est
in ion
Ġw it
Ġw atched
Ġs cience
is ions
at he
Ġb ol
Ġb reat
Ġf ier
Ġf illed
Ġf resh
Ġh op
ou bt
Ġm ission
Ġin n
Ġin qu
ll ian
as k
Ġn amed
Ġg elatine
Ġst one
ĠT hat
ĠA b
ĠA ug
ect ions
ĠS cience
Ġse nd
Ġse vent
all ey
ul ty
ĠG od
ĠM AP
ĠF l
Ġr ays
Ġsp ots
Ġch lor
ĠPro f
Ġher self
Ġdo ing
Ġno ble
Ġany thing
od e
Ġqu ant
Ġmy self
Ġsm oke
Ġcomm unity
ink ing
Ġpass es
Ġ3 5
Ġfollow s
Ġent rance
Ġown er
Ġco al
ĠNe bul
ne y
Ġinst ance
Ġpoint s
Ġsub st
Ġbro ke
Ġbro ken
Ġpers ons
Ġph ilosop
aster n
Ġbri llian
Ġconf ir
Ġrepresent s
ĠSe e
Ġsol ic
Ġbeaut y
Ġed itions
Ġobserv ation
ches s
Ġhapp ened
Ġmain tain
rid ge
Ġremain ed
Ġfif ty
Ġregard ed
Ġaccord ing
Ġtal k
TR I
Ġconcer ning
ĠMarg aret
Ġvict ory
Ġach ie
Ġintellect ual
Ġcrow d
Ġbrillian cy
P L
P ippin
a ly
a res
a ft
c ent
c ome
d y
f ort
g en
g amma
k nown
m agn
o es
p ri
u c
z e
Â ½
Ġ vel
in ent
Ġw ond
re es
is ing
Ġb ott
Ġc el
Ġc ig
Ġh at
Ġh ath
ar an
Ġm ult
Ġp ure
Ġp ath
Ġp ortion
Ġp oured
Ġth in
as ing
Ġl ines
Ġl ives
Ġl inks
st ar
Ġg le
ent ial
ce ll
Ġon es
am ing
ld eb
Ġu nd
ĠP l
ĠP erseus
ation al
ĠH igh
if t
ĠG amma
Ġsh ape
ĠM on
ĠM arch
um ed
ass i
Ġr ing
Ġr ad
ant ed
Ġsa fe
ear s
Ġwe ek
ĠD ec
ĠD awney
The y
Ġtw elve
ci ety
ish ing
Ġle an
end ing
end ent
ab les
gl ed
ub b
Ġj o
Ġsee ing
co ver
Ġnew s
Ġeff ort
Ġbr ing
Ġnum erous
ific ation
Ġcol on
Ġadv antage
Ġequ ip
up iter
elt a
Ġconsid ered
Ġstand s
Ġstand ing
Ġnebul ous
Ġcor respond
Ġtoward s
Ġdel ight
Ġarrang ed
Ġsuper ior
Ġexpl an
Ġproper ty
Ġcur rent
Ġindic ate
Ġpain ter
Ġdiffic ulty
Ġwal ked
Ġbir ds
Ġmeet ing
Ġsitu ated
ĠSer v
Ġsucceed ed
Ġmurm ured
Ġsel f
ĠGo vern
ldeb aran
0 4
? '
A D
A TION
F or
J ECT
L ab
a urus
c om
e f
f ive
p ly
u pp
Ġ =
Ġ ing
Ġ ign
in a
er n
on st
at t
at ors
Ġb ig
Ġc atch
Ġh o
Ġm ention
Ġto t
Ġd ress
ut ation
Ġg un
ly n
Ġst at
ce ly
Ġwh atever
ow ers
Ġu r
Ġas c
ĠA ldebaran
ĠS at
ĠH y
Ġsu s
em ini
ĠG UT
Ġsh are
Ġcom et
el a
Ġv an
Ġ1 00
ĠB eta
ĠB rook
Ġex amp
ous ed
Ġso le
Ġch air
ĠD an
Ġfe ver
pl ace
Ġun iform
Ġtr ou
Ġcomm itted
Ġconst ruct
Ġj our
Ġbl az
the y
Ġrep eated
ĠJ uly
ĠJ upiter
oy alty
Ġpass age
Ġdon ate
Ġvis ion
Ġdes cend
ope ia
Ġcent ury
EN BER
Ġrequ ires
Ġop inion
Ġ18 8
ari us
Ġsw ord
Ġobtain ing
Ġmidd le
Ġoffic ial
Ġsim ple
Ġmar ried
Ġremark ed
Ġhold ing
Ġdra w
Ġvisit or
Ġtrans p
Ġcond itions
Ġperform ing
ĠCap tain
Ġlead ing
Ġhig hest
Ġquick ly
EM ENT
Ġesc ape
Ġfac es
Ġpurs u
Ġserv ice
Ġprinci p
Ġsuffici ent
eg as
ĠarXiv Lab
Ġprison er
Ġstra ight
Ġtemper ature
Ġdut y
Ġpreci pit
ĠPRO JECT
Ġapplic able
Ġentire ly
Ġatmosp here
Ġcircum st
Ġmax imum
magn itude
assi opeia
Ġequip ment
ĠGUT ENBER
Ġexamp le
ĠarXivLab s
ĠGUTENBER G
1 8
A t
O M
_ .
a f
d on
h ol
p ing
r ous
r ict
u ge
Ġt all
he ast
in c
in ery
Ġw are
is hes
at al
Ġb ent
Ġb atter
Ġf it
Ġc ow
Ġc red
Ġm is
Ġm or
Ġm ot
Ġm ess
es tern
Ġp op
an cy
Ġd in
Ġd en
Ġd ust
Ġd ata
Ġl ive
Ġl ived
ic ron
Ġg ar
Ġre enforce
ot ed
id den
ĠT O
ĠT ower
ĠI II
Ġy e
Ġat tain
ĠA G
Ġan cient
Ġnot e
Ġse ized
ĠG emini
th is
ĠC omp
Ġsh ip
Ġsh aft
ĠM er
ĠM ay
Ġex ceed
ac es
Ġpro gress
Ġwhe els
ap ers
os ition
ĠF ig
Ġal co
Ġr ise
ĠL et
Ġsp r
Ġsp ot
ak age
ĠN E
ĠO ct
Ġcomp elled
Ġout l
ci ous
pl es
Ġus ually
Ġcl oth
Ġgl ance
Ġgl oom
Ġqu een
ph i
og ers
Ġ2 1
Ġshe ep
Ġpos sib
Ġinter ior
Ġcont em
ĠSt ate
Ġdes ired
Ġinst ead
cy on
Ġdet ails
Ġact ual
Ġact ually
Ġdef e
................ ................
Ġadd ress
cul es
Ġcap acity
Ġdiffer ence
Ġcertain ly
Ġred oubt
Ġmount ed
Ġwa iting
Ġpossess ion
Ġvol ume
Ġgra nd
Ġexper ience
Ġstre am
Ġgu ard
Ġkeep ing
Ġcond ition
Ġperm itted
Ġpat ri
Ġbegin ning
Ġmach inery
Ġprop ortion
mb ling
Ġstru ck
Ġmove ment
Ġmeas ure
Ġmus k
IL ITY
Ġimmedi ately
Ġsuffici ently
Ġsch ol
Ġfavor able
Ġpow der
Ġexhaust ion
Ġpay ments
Ġenc oun
Ġcomplete ly
oura ge
Ġsurr ound
Ġsatis fact
Ġsecret ary
Ġbene ath
Ġpie ces
Ġforg ot
Ġopport unity
Ġemul sion
Ġcomparative ly
Ġmoder n
ĠVen us
Ġexclaim ed
ĠAug ust
Ġexplan ation
ĠBrook lyn
" ;
A n
B y
C I
M IT
a ff
b and
e al
f ord
g ing
i pt
l ished
p her
r al
r ated
t ure
v ous
Ġ err
Ġt or
Ġt reat
Ġt ons
Ġa f
in ite
Ġs ad
Ġs ought
nd s
en ance
it rate
Ġb ul
Ġb ased
Ġf t
Ġf right
Ġc rit
Ġh ar
Ġh us
Ġm at
or ough
Ġp or
Ġp ort
Ġl au
ro om
Ġn er
ut ed
Ġe ager
Ġg ig
Ġg od
ent ed
ct urus
Ġst ro
et ers
ĠT wo
ĠT aurus
Ġfor ces
Ġfor get
ver se
ĠI I
ĠI V
Ġy ellow
ĠS c
ĠS ome
ĠH aving
Ġsu sp
Ġse es
pp ing
ĠC it
el iz
Ġv i
Ġv ain
ac hes
ell a
Ġwhe el
ust ers
ast eliz
Ġr ate
Ġr ank
Ġsp o
ak er
ig el
Ġint ended
ĠD AM
ook ing
ĠR angers
Ġtw ink
Ġapp lied
Ġun s
Ġad op
Ġcl ass
Ġcl osed
Ġcl aim
Ġ2 7
Ġlike ly
Ġpre c
Ġrem ains
Ġconst ant
ces ter
Ġpos itions
Ġnear er
Ġent ered
Ġsupp ly
Ġsec ure
Ġdes er
Ġdes ire
Ġ4 0
Ġset t
Ġcount enance
Ġsub sequ
Ġwar s
Ġser ies
Ġbright er
Ġbright ness
Ġinc hes
Ġbre aks
Ġ9 0
Ġbo il
Ġsou thern
Ġmagn ific
Ġsim ply
amm e
IT H
Ġparagraph s
Ġprob able
Ġprom pt
Ġgra ve
Ġexper iments
Ġdel ic
Ġcirc le
gr ound
Ġexh ib
Ġlim itation
Ġfif teen
Ġpap ers
Ġsum mer
Ġsepar ate
wh ich
Ġintell igence
Ġdiam ond
Ġmilit ia
Ġca used
Ġpurif ier
Ġter rible
Ġslight ly
Ġanim al
St ar
Ġrapid ly
Ġdefect ive
Ġgall ant
Ġbes ide
Ġquar ter
IG H
Ġcreat ing
Ġphenomen on
rs a
Ġspir it
Ġdistingu ished
ĠLI MIT
Ġfre qu
Ġclot hes
ĠScorp io
Ġreplace ment
Ġener gy
Ġquant ity
Ġvel ve
ĠDec ie
ĠGovern or
ĠAG RE
Ġalco hol
ĠDAM AG
ĠLIMIT ED
' re
1 5
C ome
L D
L L
N ot
S e
S o
U S
d le
g n
i et
j ust
n s
u ck
z en
Ġt iss
Ġt akes
er al
Ġw ore
Ġs ens
Ġs ides
Ġb owed
Ġf ed
Ġf ast
Ġc am
Ġc ustom
Ġh ot
Ġh ither
Ġh ung
Ġm al
or ious
Ġp aying
Ġd ame
as m
Ġl ack
ro l
ic ed
Ġbe aring
Ġhe ated
Ġhe alth
Ġg iant
Ġst ation
ĠA S
Ġan x
ĠH art
Ġse at
if f
ul ated
ra nd
il es
ĠG l
ĠG erm
ĠC ong
ĠC ON
us s
est ial
qu ar
Ġne ck
Ġex am
Ġex empt
Ġex cell
.... .
Ġpro s
Ġpro gr
ĠW ITH
Ġall ow
os es
Ġsa ve
ĠPro cyon
ĠN ove
iv ative
Ġwe ight
Ġar riv
The n
Ġcomp ared
ĠR ed
ĠR igel
Ġper il
Ġen orm
ud ed
pl ic
Ġun w
Ġfl u
Ġfl at
Ġfl ies
Ġmy ster
ep he
rib e
int on
Ġ2 4
iz ing
ue ville
av ius
Ġatt ached
Ġj ud
Ġj oy
Ġpo le
ĠTh us
Ġthr one
Ġsc ale
Ġimp ress
with stand
Ġcons ist
Ġexp ed
Ġent ity
Ġra ce
ens ive
Ġspe aking
Ġsupp ose
ipp er
Ġ4 5
Ġoper ations
Ġ* **
Ġsk et
Ġcar riage
Ġpoint ed
Ġwar m
Ġsay ing
Ġadv anced
Ġequ ally
Ġste el
Ġred istribut
Ġeng aged
Ġsw arm
Ġdiscover ies
Ġsou l
Ġprodu ce
Ġmagn ifying
Ġgener ations
Ġcare fully
Ġcond uct
Ġcirc ular
Ġrun ning
Ġimport ance
Ġwom en
Ġlim ited
Ġval ue
ĠCl inton
ĠColon ial
Ġcomply ing
Ġsum m
Ġvari able
Ġincre asing
TH E
ash ion
Ġsugg ested
Ġreve al
Ġreve aled
Ġdem and
Ġrese arch
Wh y
Ġafterward s
por ary
Ġtou ched
Ġsle ep
Ġsitu ation
Ġpract ically
ĠMarg it
Ġburn ing
ĠHer cules
Ġpow ers
Ġder ivative
Ġconce aled
Ġsav age
Ġsurpr ise
Ġaddition al
Ġprep ared
Ġreport ed
Ġnatur ally
Ġshad ow
ĠZ eta
Ġdom ain
Ġfing ers
Ġavail able
ĠLong ueville
ĠNebul a
Ġbott om
Ġcel estial
Ġign or
Ġprincip al
ĠOct ober
Ġhus band
Ġgig antic
Ġvi ol
Ġprogr amme
ĠNove mber
withstand ing
) .
G eneral
M r
M iss
O ne
U N
c on
c le
c alm
d a
d d
d ated
e er
e av
g a
g est
h is
h old
h ip
i ac
i ance
k es
m itted
p on
u nder
z eta
Ġ $
Ġt rying
Ġo wing
Ġs ick
it le
it ive
Ġb and
Ġc ard
Ġc rown
Ġc ourage
Ġh ammer
Ġm ort
Ġp ol
Ġp ick
Ġp riv
Ġto p
Ġd i
Ġth orough
as hed
Ġl iving
Ġg en
ct or
ct ure
ad el
Ġst ep
se t
ir ing
ir st
ur s
ĠP r
ĠP res
ter ing
ĠA qu
ĠA nt
Ġcon cept
all ed
if ted
ĠC assiopeia
Ġsh ine
Ġsh ore
el ge
Ġv alley
ĠM en
ĠM or
ĠM ass
Ġex er
ol a
op ic
ound s
ast e
ĠF eb
Ġal arm
Ġr ough
ag itt
ĠD uring
ĠE l
Ġpl ay
Ġtw ice
ab led
Ġgr at
Ġ2 8
Ġ2 00
ĠTh ou
Ġsee k
Ġunder t
Ġshould ers
Ġsc hem
Ġcont riv
ĠJ an
ĠJ ames
Ġpass ion
ps ilon
Ġpe aks
Ġra ised
ens ity
ĠAr cturus
ict ion
ĠTH IS
Ġarm ed
Ġturn ing
Ġsk in
Ġend eav
Ġdef ense
Ġcommand ed
ric orn
Ġfour th
gg ed
Ġche ek
Ġgiv es
Ġpa used
Ġfort un
Ġfo es
OR E
Ġthousand s
Ġsol id
Ġprodu ction
Ġmar vel
Ġperson al
Ġinf luence
Ġill umin
Ġinv est
Ġpossess ed
Ġple ase
Ġast on
Ġcost s
Ġplac es
Ġwant ed
Ġpict ures
alt ies
Ġel se
Ġaccord ance
Ġhon our
Ġprinci ple
eps ilon
Ġdiv ided
Ġanim als
Ġdeg ree
Ġdeg rees
Ġperce ived
Ġprev iously
Ġroy alties
ĠPh il
cient ific
Ch ief
Ch ristian
Ġinvent ion
Ġbur st
Ġang ry
ĠJohn son
Ġsqu are
Ġrender ed
Ġapparent ly
Ġneighbor hood
Ġspect acle
ĠST AR
ĠTy cho
ĠComm ander
Ġinhab it
Ġscar cely
Ġtot al
Ġcircumst ances
Ġdin ner
Ġdefe at
Ġvelve t
ĠCong ress
Ġflu id
elge use
4 0
6 2
A d
G ood
G reta
L et
O O
O h
V I
a ign
d om
e an
f our
h y
h ow
i ke
l o
l ig
l ies
m aps
n est
r ad
t wo
v ile
w ed
Ġ Q
Ġ rom
Ġt one
Ġt ree
Ġa ut
Ġa ver
Ġo pt
Ġw ing
Ġs alt
re st
on y
at ory
ed s
it al
Ġb ord
Ġf un
Ġh ang
ou cester
Ġm ic
Ġm el
Ġm ixed
Ġp it
Ġp ack
Ġin e
an a
Ġd a
Ġl b
Ġl ake
Ġl ying
Ġl aid
Ġl oose
Ġn on
Ġn et
Ġn one
le y
le ase
Ġbe ast
st ood
ot ing
ot ograph
Ġst y
Ġst op
Ġst ret
et es
Ġas ide
ĠP apers
ill age
ĠH umph
Ġse lect
Ġse ason
Ġcon vey
oo ls
oo etes
ĠG ree
ess ed
ĠC et
ĠC amb
Ġv ap
ĠM any
est s
ble m
ĠB ay
ac c
ac he
um ent
ĠL anc
our ing
Ġsp l
Ġsp ark
Ġch ance
iv al
Ġk iss
Ġwe ak
ag ue
ĠE ven
Ġno se
pt ember
Ġcomp re
Ġcomp osed
âĢĶ -
Ġen s
end ous
ĠHe ights
Ġcl ay
Ġtr ust
Ġgl ob
Ġqu est
Ġacc ur
Ġacc ident
ĠY et
ĠU rsa
te xt
Ġyour self
ates by
ru g
glass es
Ġ3 7
Ġear s
Ġlar gest
Ġexp osed
Ġem pt
Ġsur v
Ġfar ther
Ġspe ck
ĠNe vile
Ġ5 5
Ġprov isions
Ġcar bon
Ġrece iving
Ġmid night
Ġenem ies
ĠK asteliz
Ġ6 0
Ġcap able
Ġgiv ing
Ġmod els
Ġdep ends
Ġ8 0
not e
Ġsol ar
Ġview ed
Ġmar riage
ĠWar ren
Ġcompan ions
Ġill um
Ġwa it
Ġwa ist
ĠWe bb
Ġstre aks
sh ip
Ġexist s
Ġpat ent
ĠCap ella
Ġdoubt less
Ġsuper int
ĠCl avius
Ġmove ments
Ġtail ings
Ġimag ination
Ġte xt
Ġconn ection
Ġvari ety
Ġmus ic
Ġdec ided
Ġca us
Ġhur ried
Ġpurs ued
Ġest ab
Ġele ven
amb da
ĠSo ciety
Ġcra ck
Ġgrad ually
Ġdisapp eared
Ġsurpr ised
Ġdu chess
Ġty pe
ĠMont calm
Ġdeterm ined
Ġphenomen a
Ġplain ly
Ġrevol ution
ĠLy ra
Ġassist ance
ĠLe o
Ġexact ly
Ġpen et
Ġinform ed
Ġsym p
Ġbuild ing
Ġwhisper ed
Ġphilosop her
ĠSat urn
Ġtrou ble
Ġbatter ies
Ġcred it
Ġpop ular
Ġreenforce ments
ĠCit ations
Ġsett led
Ġmagnific ent
ĠGl oucester
quar ters
Ġarriv al
Ġexped ition
Ġinhabit ants
1 0
4 1
5 1
5 00
A b
A CH
C an
D e
F oot
L ook
O f
P ut
R ozsi
T Y
Y our
c ott
e es
f ety
g ers
i i
n oon
p ent
r am
t ts
u x
u gh
u able
w ick
y gn
in ced
er ton
Ġs ister
re en
Ġb ay
Ġb ore
Ġb are
Ġb ull
Ġb row
Ġb uri
Ġf ro
Ġf old
Ġc oo
Ġc ru
Ġc aut
Ġh orn
Ġh ops
Ġh arm
Ġh idden
ou ds
Ġm ajor
Ġp ull
Ġd ry
Ġd az
Ġd ots
Ġl ad
Ġl ot
Ġn itrate
le ep
Ġe astern
Ġbe at
st ract
Ġg ro
ct ions
Ġre tain
Ġre ser
al ities
ot e
ot tle
Ġst ir
Ġst airs
Ġst eps
se ct
ri e
im ately
ĠI ND
Ġas pect
ĠA m
Ġan tic
ĠS m
ĠS ch
ill ing
ain ing
ĠH o
Ġha bit
Ġnot iced
Ġor ange
Ġor bit
ra id
ĠThe ir
th y
ĠC ephe
Ġsh ook
Ġcom r
ĠB e
Ġne are
Ġex cl
ol as
op h
Ġpro blem
um m
un ic
Ġsa fety
Ġch oose
iv ity
ĠE m
art ed
Ġcomp et
Ġle aving
Ġle akage
Ġapp ointed
Ġun known
Ġro of
Ġthere fore
Ġgr ains
ach use
og ra
Ġ2 3
Ġpre fer
Ġpre par
Ġam b
Ġcop ied
av ana
Ġatt ended
Ġbl ank
Ġinter p
Ġoff ice
Ġimp ul
ĠV an
oy al
ribut ions
Ġcons ists
Ġra re
Ġfar mer
Ġmill er
uri ga
Ġke en
Ġinst inct
Ġdet ach
EN TI
Ġser ved
Ġmight y
Ġcol our
Ġpresent s
Ġpresent ed
Ġhundred s
Ġ7 5
gg le
Ġfore ign
OR K
ĠRe g
ES S
ĠAmeric a
Ġcontain ed
Ġcor re
Ġinv olved
Ġed uc
Ġstre et
Ġsix ty
Ġappro ached
Ġwr ong
Ġhast ily
tern al
rid e
Ġwrit er
Ġexpl os
Ġinstrum ents
Ġfif th
Ġstru cture
Ġstru ggle
Ġdispl ay
Ġ20 22
Ġbelie ved
Ġsepar ated
Ġcre ation
Ġcre ated
Ġpain ted
Ġbar re
Ġdro pped
Ġorgan ism
ĠWh y
ĠNor thern
ĠCan ad
Ġgre y
Ġsugg estion
Ġele v
Ġexc use
Ġastronom ical
Ġwood s
Ġapproach ing
Ġtou ch
Ġcamp aign
Ġpract ical
Ġleg s
Ġsav ages
Ġlab our
Ġpun ches
Ġdim in
Ġquar ters
Ġsmo oth
Ġcalcul ated
Ġprep are
Ġpaint ing
ĠVir go
Ġfa ith
ĠMin or
ĠBet elgeuse
Ġprint ed
Ġsor ry
ĠDon ations
Ġperfect ly
Ġsulph ate
athe red
ĠProf ess
Ġsolic it
Ġmention ed
don ate
Ġpatri ot
Ġschol ar
Ġforgot ten
Ġcrit ical
Ġfed eral
ĠGerm an
Ġenorm ous
Ġmyster ious
ĠPres cott
ĠMass achuse
Ġexer c
Ġcontriv ance
ĠCamb ridge
Foot note
Ġantic ip
Ġneare st
ĠMassachuse tts
2 0
C ast
H ow
I RE
S T
T C
W ell
_ .--
a ult
c omm
l ict
n u
n y
n ce
p ir
r ation
r ical
u ing
u ary
y n
z z
Â °
Ġ &
Ġ ess
Ġa im
in ently
Ġo ught
Ġw ire
Ġw ise
Ġw estern
Ġs en
Ġs al
Ġs out
re ys
is es
is tered
Ġof fer
at ers
ed ing
it ud
Ġb an
Ġb as
Ġb old
Ġb itter
Ġb ottle
Ġf ain
Ġf ired
Ġf itted
Ġf ool
Ġf ashion
Ġc ool
Ġh uge
ou st
Ġm oust
Ġp ip
Ġin ch
Ġin sect
Ġto pic
an ic
Ġd ot
Ġd ance
Ġd well
ll s
ll y
ll ing
Ġth row
Ġl one
Ġn ative
Ġbe nding
Ġhe m
Ġg ently
Ġg athered
ent h
om icron
al ace
Ġst ur
ri an
ri et
ri el
id ently
am ps
Ġas k
ĠP G
ĠP om
ter a
ich olas
Ġsu it
Ġse m
Ġcon vers
ul f
ĠC ity
ĠC ount
ĠC ross
ĠC atesby
Ġsh ines
el come
Ġv ent
Ġmo ving
ĠM ap
ĠM ount
ĠM anger
est own
ĠB E
ĠB ull
ĠB RE
.... ..
Ġpro of
ous es
um n
Ġde cor
ĠF ish
Ġal tern
Ġch ap
Ġwho lly
Ġwe eks
Ġme ant
Ġdis g
The se
Ġout er
ĠR iver
ĠR ube
ĠR ogers
Ġany where
Ġun e
Ġun able
Ġli qu
Ġli ber
ab or
gl es
od iac
Ġcl oud
au ri
ph ia
Ġgr ass
Ġgo vern
ord ing
Ġam id
Ġrep utation
Ġunder stood
Ġsc ent
Ġsc out
ĠV I
ĠV illa
Ġear nest
ran k
Ġent rench
Ġent ering
Ġsl ipped
Ġknow s
Ġbeg un
ĠTH AT
Ġ4 1
ĠCh ris
ĠCh arl
Ġrec ently
Ġrece ipt
Ġrequ est
Ġbro wn
Ġ17 8
Ġph otograph
Ġfin er
Ġfin al
Ġadv ice
Ġche st
Ġnor thern
ĠSe ptember
Ġeng ines
Ġgrou ps
Ġwa ited
Ġcontain s
Ġarr ay
Ġcare ful
Ġnecess arily
pic a
Ġhapp y
Ġremain ing
Ġbegin s
Ġconsider ably
Ġland ed
Ġopen ing
Ġprocess es
Ġval uable
Ġdri ving
Ġev idence
Ġorgan ic
Ġesc aped
Ġcr ater
vol ution
Ġsouth west
Ġhur t
Ġserv ant
TH ER
Ġmean ing
Ġastronom ers
Ġchang ed
Ġprev ious
Wh ile
Ġvacu a
Ġroy alty
ĠAll erton
ĠHow e
Ġspec ies
__ __
Ġfurn ish
Ġmem ory
Ġmem bers
Ġcross ed
Ġwid est
Ġdeterm ine
ĠNO T
Ġabs ence
Ġrefer ences
Ġsurr ounded
Ġsatis f
Ġnatur al
Ġshad ows
Ġextrem e
Ġadvent ure
Ġpreser ved
Ġbreat h
Ġinn oc
ĠAb out
Ġcig ar
ĠHigh lands
Ġlean ing
Ġjour ney
Ġdescend ed
Ġoutl ines
phi uch
Ġaf raid
Ġtiss ue
adel phia
Ġillumin ated
ĠPhil adelphia
lig ed
Ġglob e
Ġsuperint endent
Ġburi ed
Ġdaz z
ogra pher
ĠProfess or
ĠRube in
ĠCharl estown
' d
2 1
5 0
9 2
A fter
C II
D o
F rom
O SE
P lain
T S
U LL
b ola
c rom
d ish
g reg
i est
i qu
i ally
l ooking
o id
o ir
o ver
p en
p es
p se
r or
s is
y right
Ġ #
Ġt ur
Ġa x
Ġa per
in ction
Ġthe ory
Ġo un
er a
Ġw ays
Ġw olf
Ġs in
re ci
Ġb ow
Ġf er
Ġf ancy
Ġc rim
Ġc oun
Ġh om
Ġh un
ar th
Ġm iss
or se
Ġp ist
Ġp rim
Ġp ride
Ġin ex
an e
an gled
as c
Ġl ion
ic s
le g
Ġbe ars
Ġbe nds
st re
Ġg ather
Ġg rew
om s
al ile
Ġst out
Ġst orm
Ġst uff
Ġwith dra
ĠT r
ĠT w
ir d
Ġwas te
Ġy es
Ġy ield
ĠA uriga
Ġan aly
ĠS agitt
ĠH ugh
Ġnot ed
Ġnot withstanding
ul us
ra ced
ĠC or
ĠC ast
ĠC ode
Ġsh ut
Ġv ary
Ġv irt
Ġv illage
ĠM ir
ĠB ooetes
ers ed
ol s
op yright
ĠW ard
Ġde ck
Ġr u
Ġr ude
ĠL ook
ĠL anguage
Ġsp read
ĠN ature
ig hed
Ġwe ather
ag ger
Ġar oused
ĠO N
ĠO THER
ĠD og
ĠD av
Ġdis m
ĠE X
ĠE psilon
Ġob liged
Ġpl ung
Ġcomp on
Ġcomp lic
ĠR ome
ĠR oyalty
ud den
pl ied
Ġapp ar
Ġro t
Ġli ability
Ġother wise
Ġfl ight
Ġcl os
Ġcl usters
ire ct
Ġgl ad
Ġmy st
Ġgr ate
ang ed
ang le
Ġ2 9
iz en
Ġcomm unic
esc ription
Ġafter noon
Ġrep ly
Ġsc attered
Ġres ist
Ġres olved
Ġobser ve
ign ed
Ġ3 4
Ġ3 8
aw s
Ġcons ult
Ġlight ed
Ġexp enses
Ġthought s
Ġem otion
Ġsur vey
Ġhead s
Ġelectronic ally
Ġmill im
Ġfull y
Ġback ground
Ġday light
ĠAl b
Ġuse ful
Ġpur ch
Ġeff ected
Ġext ra
Ġsent ence
Ġnight s
arch us
Ġlet ters
Ġfour teen
Ġfin ished
ene bola
Ġconf idence
Ġche er
Ġred dish
Ġass ault
Ġdep th
TI ES
Ġfact s
Ġsever e
app ed
ĠRe volution
ĠIs land
Ġtre m
Ġill ustr
Ġcor rug
Ġdra wing
Ġclose ly
Ġprom inently
Ġshort s
Ġtrans c
Ġneed ed
Ġhast ened
Ġ12 9
Ġrun s
]) .
Ġcomple ted
ĠCap ricorn
Ġremain der
Ġproper ly
Ġsuccess ful
Ġtem porary
Ġsign ific
Ġroll er
Ġgold en
Ġimag ine
Ġstud ent
wh ile
Ġaw a
ĠWh ile
Ġexcept ion
Ġincre ase
Ġfoot st
Ġbir d
Ġest imate
Ġmur der
aid en
Ġdr ink
Ġattract ive
Ġsplend or
Ġspec ific
Ġspec ified
Ġleg al
Ġexhaust ed
Ġdu ke
Ġcomput er
Ġcomput ers
Ġhill s
ĠEx cept
Ġprison ers
Ġlie u
Ġgaz e
Ġreach ing
Ġann oy
Ġdut ies
Ġdam ages
ĠLI AB
Ġbreast work
Ġvessel s
Ġaccompan ied
Ġdisclaim er
ĠWARRAN TY
ĠWARRAN TIES
Ġtend er
Ġinfer ior
Ġachie ve
Ġwond ers
Ġjo ined
Ġing en
Ġstat ement
Ġasc ertain
ĠHy ades
Ġsus pic
Ġconstruct ed
Ġcow ard
Ġmusk et
Ġsurround ing
Ġtreat ment
Ġdelic ate
ĠAGRE E
ĠDAMAG ES
Ġhither to
ĠAS CII
ĠColonial s
Ġthorough ly
ĠAnt ares
ĠJan uary
ĠHumph reys
Ġempt y
Ġsymp ath
Put nam
Ġimpul se
ĠVan illa
IRE CT
Ġsout heast
Ġstur dy
ĠBRE ACH
alile o
udden ly
! --
. _
2 5
A ll
B UT
H err
I s
I ES
K ing
O P
S S
] ;
b ie
b ack
c ord
c alled
f it
g ol
h us
h ouse
i ot
m n
m u
o ch
p et
r ise
s en
t og
u f
u fact
Ġ +
Ġt a
Ġt ort
Ġt ull
Ġt ask
in y
er able
Ġw ilt
is si
is ible
at ri
en ity
Ġb read
Ġf ate
Ġf ile
Ġf rown
Ġf urious
Ġc ree
Ġc ult
Ġh ide
Ġh ouses
ar is
ar ies
Ġm ix
or row
es e
es ides
Ġp red
an us
an ia
Ġd ried
Ġd ensity
Ġth ine
Ġth rew
Ġth rown
Ġl anguage
ic ian
Ġe at
ad uke
ot it
Ġst ay
Ġst ated
Ġst ared
Ġst ories
Ġis land
et her
Ġwas hing
ĠA ber
ĠA pri
Ġan ne
ĠS ale
ĠS pica
ill ery
ĠH avana
Ġsu p
Ġse nding
ul ating
ra b
pp i
ĠC H
ĠC orn
Ġsh ips
ke e
Ġmo ist
ĠM ed
ĠM ad
ĠM ag
ĠB oard
ĠB urg
ol ic
Ġstar ing
ac ed
ac ious
ell ing
um es
um pt
ard en
ĠW est
ĠW here
Ġal pha
Ġr ange
ĠL it
ĠL ee
Ġch in
ĠN u
ĠN ear
ĠN icholas
Ġman ufact
Ġar ise
ĠE very
Ġno vel
Ġob sc
Ġpl ains
Ġen able
ci pl
Ġle vel
pl or
Ġro de
ab b
gl ing
Ġim per
Ġfl ick
Ġtr uly
cl es
ck et
Ġgl ow
Ġdist ur
Ġqu iver
Ġqu ality
Ġqu iet
Ġqu alities
Ġkn ight
Ġsm iled
Ġgr as
Ġgr anted
rib ed
Ġour selves
ĠU se
Ġform ats
Ġpre ced
Ġover whe
Ġconst it
so ever
Ġwhat soever
Ġoff ers
ru ff
ĠSt ill
Ġexp ressed
Ġreg istered
Ġent hus
Ġpr oud
Ġem ail
ens ed
Ġread ing
Ġhead quarters
Ġown s
Ġco at
Ġ5 2
Ġset ting
Ġglass es
Ġincl ined
cy one
Ġdet ect
Ġmap s
ros c
Ġplanet ary
Ġsub tle
Ġbri ef
Ġ7 0
Ġ7 9
Ġ9 8
Ġhigh ly
Ġfort s
Ġsw amp
Ġmark s
Ġmon ster
Ġrest rict
ple as
Ġobserver s
Ġget ting
ĠRe comm
Ġtra ve
ĠFrench man
Ġinf ect
Ġaff ord
Ġput ting
Ġsuff er
Ġprom oting
Ġart illery
arm aduke
Ġdescrib e
Ġcare er
Ġheart s
Ġsystem s
Ġmain ly
Ġins p
Ġrel ative
ĠOn ly
Ġpurp oses
Ġland s
Ġcal m
Ġdev oted
Ġpleas ant
oun ced
Ġdispl ayed
Ġimag ined
Ġdri ve
Ġev idently
Ġrespect s
Ġorgan ized
IL L
Ġflo ating
Ġincre ased
Ġoccasion ally
Ġpurif ied
Ġpurif iers
Ġhon or
Ġdog s
ĠProvinci al
Ġcapt ive
Ġastronom y
Ġdem onst
Ġrecogn ize
Ġroy al
Ġattract ed
Ġpot ential
Ġgrow led
Ġoccur red
Ġforest s
Ġgaz ing
Ġneg lect
Ġreflect ed
Ġident ify
Ġevent s
Ġdistingu ish
Ġoccup ied
Ġadmir ation
Ġfail ed
Ġhy p
Ġcomb ined
Ġacqu aint
ĠMiss issi
Ġdevelop ment
Ġregular s
Ġdecl ared
Ġglim pse
ĠDIS TRI
Ġaccompl ish
Ġaccompl ished
Ġimpro ve
Ġframe work
ien ced
Ġbol ting
Ġconfir m
Ġsole mn
Ġpossib ly
Ġmat hem
Ġlau gh
Ġprompt ly
Ġpros per
Ġinvest ig
OO K
Ġstret ched
ĠCet us
Ġquest ions
Ġillum ination
ĠCephe us
Ġexplos ion
Ġorganism s
Ġpip e
Ġinnoc ent
crom bie
ĠDav id
Ġclos er
tog ether
ĠAber crombie
ĠApri l
ĠSale m
Ġoverwhe l
Ġenthus i
Ġrestrict ions
ĠRecomm end
ĠMississi ppi
ĠDISTRI BUT
1 7
2 4
3 3
3 4
A r
B e
B OOK
H ub
M ar
N ow
P R
P lease
S ibyll
U D
U R
W ashington
] .
a el
b l
b or
b its
b urg
c her
c ol
c ont
d ro
f ast
f luence
h and
i ber
i que
j o
k er
l t
m a
n ers
n cy
o is
o or
o ved
p ie
r ant
r ison
s he
s it
s es
s Hub
w as
w all
w ord
Ġ x
Ġt ables
he nd
in us
er k
er en
Ġw is
Ġw ear
Ġw elcome
Ġs and
Ġs igh
on ed
en ith
en gers
Ġb it
Ġb ac
Ġb os
Ġf ra
Ġf il
Ġf ood
Ġf ix
Ġc iv
Ġc ry
Ġc ement
Ġm ad
Ġm aiden
ing ton
Ġin ner
Ġd ig
Ġth reat
Ġl ink
Ġl oud
Ġl umin
Ġl uck
ro ther
ic le
ion e
Ġe p
Ġhe nce
Ġg ain
Ġre cept
Ġre els
Ġre cover
ly ze
om an
al is
Ġst up
se e
ri ll
ĠT erms
ĠT ools
Ġfor ced
Ġu lt
ĠI M
Ġas h
Ġas se
Ġas king
Ġas leep
ĠP O
ĠP AR
ch ar
ĠA ries
ĠS un
ĠH ugg
Ġha z
Ġse as
Ġse ated
Ġcon ver
Ġcon qu
Ġcon ven
if fer
ĠG ra
ĠG alileo
ĠG otit
th ou
ĠC ata
ĠC ORE
ĠC ygn
Ġsh o
us hing
Ġv ic
Ġv ir
Ġv oy
ĠM an
ĠM oon
ĠM armaduke
est y
ĠB l
ĠB ar
ĠB un
ĠB ear
ĠB oth
ĠB esides
Ġne ither
Ġstar ting
.... ...
Ġpro ve
ap an
ast ic
ĠF ULL
Ġal together
Ġr ule
Ġup ward
ĠL IC
Ġsp ent
Ġch ain
ĠN ic
ĠN os
ĠN ath
ure ly
Ġint ention
ag sHub
Ġar ch
ĠO ther
ĠO phiuch
ĠD u
ĠD is
ĠD uke
ĠD elta
ĠD ipper
ĠD enebola
ĠD agsHub
Ġab and
Ġdo c
Ġdo ctor
Ġdis cipl
ĠE ast
ĠE BOOK
Ġno body
Ġob st
Ġpl at
Ġpl ans
Ġpl aying
ind s
ind ed
ind ing
Ġag es
Ġcomp l
Ġcomp ressed
Ġper man
ish ment
Ġle ver
pl er
pl ess
Ġro ck
ab ric
Ġfl ood
Ġfl ushed
Ġfl owers
Ġcl ouds
Ġtr ain
Ġgl orious
Ġmy tholog
Ġ2 6
ord inary
Ġlook s
Ġhand le
Ġam mon
ĠIn fluence
Ġconst antly
Ġconst ruction
ĠTh om
Ġinter rupt
Ġsc al
Ġres c
Ġthrough out
Ġ3 6
Ġear l
Ġsun sh
Ġsun light
Ġexp end
Ġpe ace
Ġreg ions
Ġsl ain
Ġra il
Ġac id
ĠAr ist
uri es
Ġchar m
Ġappear ing
Ġmoon s
ib ra
ib li
ĠCh ar
ĠAl cyone
EN D
EN SE
Ġend s
Ġdef inite
Ġbright est
Ġext ract
Ġext ended
Ġfind ing
Ġmid st
Ġnum bers
Ġ17 6
,-- "
Ġsil k
ific ations
Ġ6 4
Ġcap ital
Ġbre aking
Ġbri g
Ġagre ed
Ġadv ancing
Ġreturn s
Ġconf ess
Ġche ap
here nt
Ġeng ag
Ġdark ness
Ġbo at
TI VE
Ġrest less
ĠWar wick
Ġtra ce
Ġtre ated
Ġaff ected
Ġinv isible
Ġsuff ered
Ġpossess ing
ww w
Ġgra ce
Ġdirect ed
Ġgu est
Ġ13 0
Ġcoll abor
Ġpat ient
Ġ11 6
Ġval ues
Ġcut ting
Ġfav our
Ġfeel ings
ex ington
Ġimag inary
Ġdest ruction
Ġstud y
Ġindic ated
ĠConn ected
Ġsum mon
Ġmeas ured
Ġperiod ic
Ġindividual s
Ġneighb ors
Ġwal k
Ġengine er
ĠX V
ĠX X
ĠCan cer
Ġmist aken
Ġbir th
Ġfall en
Ġsugg est
Ġexc ited
Ġz enith
Ġwood en
Ġdr unk
Ġrese mbling
Ġhist or
Ġcompar ison
Ġconcer ned
Ġgrow ing
ĠSer enity
ĠHow ever
Ġvolunte er
Ġlab or
ĠEx plor
Ġsmo king
ograph ic
Ġgaz ed
Ġneg ro
Ġtemper ament
Ġmechan ically
Ġneighbor ing
Ġpie ce
Ġsure ly
Ġacqu ired
Ġconv inced
ĠVir gin
isp here
Ġaccompan ying
Ġbi ographer
Ġintrodu ced
Ġpreser ve
Ġnin et
Ġfier ce
ĠScience Cast
Ġchlor ide
Ġconfir med
Ġachie ved
Ġgle am
ĠServ ia
Ġvan ished
Ġpursu it
egas us
Ġprecipit ate
Ġmot ions
Ġgloom y
Ġner vous
Ġspo ken
Ġadop ted
Ġsubsequ ent
Ġboil er
IGH T
Se a
ĠRed istribut
Ġsket ch
Ġignor ance
ĠPr ince
ĠSTAR S
Ġopt ical
Ġda ily
Ġestab lished
Ġcaut ion
ĠSm art
ĠReg ulus
Ġbarre ls
ĠCanad a
Ġexerc ise
itud es
Ġfain ter
Ġlone ly
ĠMount ains
Ġaper ture
Ġappar atus
irect ly
Ġfootst eps
Ġsympath y
Ġalpha Xiv
ĠLit maps
Ġconfirm ation
Ġbac ill
lyze X
ĠHugg ing
ĠCata lyzeX
ĠLIC ENSE
Ġperman ent
Ġmytholog ical
ibli ographic
Ġcollabor ators
ĠExplor er
' ,
. [
2 7
3 9
4 4
B E
C L
C ap
F IC
H emmings
I ED
J ames
L e
M ost
N ER
O LD
S ub
T AB
V EN
_ --
a un
a ure
b re
b ur
b ear
b les
b oard
c il
c est
d ed
d ing
e u
f ret
g eneral
g gling
h ib
i el
i ela
k a
m in
n et
o le
p ort
r ion
u it
u el
u ced
u zz
v i
z ing
Ġ id
Ġt ight
Ġt int
Ġt ub
Ġt empt
in ations
Ġw and
Ġs ac
Ġs our
Ġs ite
Ġs ons
Ġs orts
Ġs cientific
re ed
re nder
en ger
Ġb in
Ġb ase
Ġb inary
Ġb ubb
Ġb aker
Ġf al
Ġf ame
Ġf ish
Ġf ond
Ġf atal
Ġf abric
Ġc at
Ġc it
Ġc ant
Ġc uri
Ġc atal
Ġh ollow
Ġh opes
ou thern
ar med
Ġm ild
Ġm ule
or ter
or ous
Ġp ages
Ġp airs
Ġd y
Ġd ign
Ġd read
Ġd aught
Ġd ressed
Ġd ancing
Ġl at
Ġl ies
Ġl og
Ġl ifted
Ġl oyal
ro p
Ġn ort
Ġe ld
Ġe cc
Ġbe ll
Ġhe ating
Ġhe sit
Ġg est
Ġg rim
Ġg rie
ent ive
ent ric
Ġre nd
Ġre ar
om y
om ple
ot al
ot hes
Ġst age
Ġst amp
ce lain
ri ving
ĠT e
ĠT ra
am il
ur ch
ur able
ĠP L
ĠP er
Ġy ard
ch ant
ĠA ustr
ĠA MER
Ġan ci
Ġan cest
ĠS uch
ĠS omet
ĠS outh
ĠS upp
ill ity
ĠH a
Ġha ll
ich ael
ul ation
ul gar
ra ft
ra ction
ĠG old
ĠC al
ĠC ub
Ġsh one
Ġsh ade
Ġsh ared
Ġsh irt
us hes
el ow
Ġv ig
Ġv ulgar
Ġmo l
ĠM u
ĠM y
ĠM oh
ĠM ichael
qu illity
Ġex cess
Ġex ec
ell s
ĠW atch
ap ing
ĠF ather
ĠF rance
un ities
Ġr ul
Ġr ushed
ĠL exington
Ġsa ved
Ġch amp
ort ing
Ġk ings
Ġint r
Ġint ense
Ġar g
Ġdo ors
ĠE lect
ĠE rid
ĠE ta
ĠE arth
Ġno ise
Ġno dd
Ġob ey
Ġpl ate
Ġag ent
Ġag greg
ĠR uf
Ġen abled
ven ue
Ġwhen ever
Ġro d
Ġro cks
sel ess
Ġwould n
Ġad just
are ncy
Ġcl ub
cl uster
Ġgl anced
Ġdist ances
Ġqu eer
Ġgr ade
ach ing
oll ect
oll ux
Ġform ation
Ġcomm ission
Ġshe l
Ġam az
Ġrem ove
Ġbl ow
Ġthr ust
Ġsc r
Ġind iffer
Ġres ol
Ġimp at
Ġimp ressed
ĠJ erse
ĠJ apan
oy ne
Ġ3 1
Ġold er
aw ks
Ġlight s
Ġexp ense
Ġent er
Ġent ertain
Ġra ge
ens ion
Ġread ers
Ġsur render
Ġvis its
ĠAr t
Ġspe cul
Ġmet all
Ġsupp lied
Ġbeg gar
Ġke y
Ġco b
Ġ4 2
Ġ4 3
ĠAl gol
Ġsk ill
ever al
Ġrec all
Ġwar rant
Ġdef ended
Ġser ve
Ġser ene
ĠK now
bul b
Ġ6 5
ĠCon cord
Ġ7 4
Ġreturn ing
Ġche eks
Ġste ady
Ġmod e
Ġrepresent ations
ock s
ock ed
Ġfore head
Ġfort une
Ġ10 4
.-- _
Ġbo ard
Ġbo ats
Ġsol ution
Ġview s
Ġview ing
Ġmar ry
Ġtra ced
Ġaff ect
Ġaff airs
Ġcor por
Ġtrad ition
Ġgener ator
Ġpossess es
Ġart ist
Ġmom ents
sh ot
Ġopp osed
Ġneed s
Ġ13 5
Ġmatter s
Ġcoll ected
Ġrel ated
Ġrel ations
ĠAt l
Ġcontin uous
Ġbeautif ully
mb l
Ġlear ning
Ġadm ired
Ġblood y
Ġeffect ive
Ġnebula e
Ġsuccess ive
Ġris en
Ġdri ver
Ġdri ven
Ġev ident
Ġindic ating
Ġsepar ating
Ġaw are
Ġmeas ures
Ġmeas uring
Ġgentle men
Ġdro ve
Ġdro ps
Ġnorth west
Ġbus y
Ġeight h
Ġwal king
Ġfac ility
Ġcr aters
ĠX I
ĠCan is
Ġboy s
Ġdise ases
Ġserv ices
Ġfall ing
IC AN
Ġdiv ision
Ġcapt ured
Ġz odiac
Ġtri umph
Ġtri angle
Ġdanger ous
... !
St ars
Ġsle pt
Ġpot ash
Ġwide ly
Ġwatch ing
eg a
Ġcomput ed
Ġty pes
Ġbes ides
Ġcalcul ate
Ġfear less
Ġcreat ure
let ter
Ġprof ound
Ġimm ense
Ġrefer red
Ġbelong ing
ĠSp ring
Ġspir its
Ġmarch ing
ĠLy man
Ġopport unities
ĠSU P
Ġdesign ed
Ġ175 5
Ġrid ic
Ġfly ing
ustom ed
Ġdre am
Ġconcl uded
Ġremember ed
Ġrecord s
Ġdepart ed
Ġlist ened
Ġproceed ed
Ġconsequ ence
Ġconsequ ently
ĠCont inent
Ġer ected
Ġinqu ir
Ġsevent y
Ġmult i
ĠServ ice
Ġtransp arency
Ġgar rison
Ġexceed ingly
ĠFig ure
Ġcontem pl
Ġencoun tered
Ġerr ors
Ġbul k
Ġgod s
Ġstro ke
Ġsusp ended
Ġfrequ ently
ĠHart ford
Ġimpress ion
Ġconsist ing
Ġgen ius
Ġschem e
Ad am
Ġsty le
Ġcompre hend
Ġcru el
Ġhorn s
umm el
Ġprepar ations
Ġmoust ache
Ġhem isphere
Ġgather ing
ĠSagitt arius
Ġcomplic ated
Ġconsult ing
Ġextra ordinary
Ġcult iv
ĠMad ge
ĠBurg oyne
Ġacquaint ance
eren ice
Ġbos om
Ġinterrupt ed
Ġsunsh ine
ĠArist archus
Ġengag ement
Ġcuri osity
Ġcatal og
Ġdaught ers
Ġecc entric
omple te
ĠAMER ICAN
Ġanci ents
ĠRuf us
" ),
3 0
3 6
3 8
4 6
A re
E very
H ere
H astings
I B
I ND
J ust
M an
M aster
N e
P l
P RO
R S
S A
S arelli
T ON
U C
U M
W ill
b able
b ows
d oes
d elta
f ather
f ield
g on
g ain
g reat
g hed
g ment
g az
g rim
h o
i h
i ently
i ety
j oy
k i
l eness
m ir
m ap
m ount
m orrow
p ite
p ower
p read
s m
s y
t ube
u ble
u ish
v il
x es
y m
y our
} ........
Ġ }........
Ġt on
Ġt ong
Ġt erm
Ġt orn
Ġt ract
Ġt ears
Ġt iny
he arted
Ġa ck
Ġa head
in ate
in ally
Ġw et
Ġw ished
Ġw ides
Ġs way
Ġs now
Ġs ighed
re ted
is ces
is ters
at o
at as
ed uct
en ic
it ary
it ement
Ġb en
Ġb ag
Ġb ron
Ġb ite
Ġb att
Ġf ill
Ġf ru
Ġf oc
Ġf aded
Ġf ires
Ġc ou
Ġc ran
Ġc ork
Ġc attle
Ġc ases
Ġh ate
Ġh ue
ou l
or ing
es pite
Ġp ig
Ġp ink
Ġp ause
Ġp ushed
Ġd il
Ġd rying
Ġd awn
Ġd irt
Ġd atas
Ġl amp
Ġl of
Ġl oyalty
Ġn ur
le ment
Ġe con
st ock
st ronom
Ġg n
Ġg al
Ġg ross
ent ment
Ġre view
ly ing
om ed
al ance
ot a
Ġst ature
Ġst ock
Ġst ages
Ġst aff
Ġst iff
ce mber
ri f
ri or
ri ous
Ġis lands
id ity
id ian
ĠT it
ĠT urn
ĠT ran
ĠT otal
ur ation
ur red
ur ity
ĠP aris
ĠP egasus
ĠP ollux
ch n
Ġan t
ĠS l
ĠS pe
ĠS CI
ĠS outhern
ĠH ar
ĠH ann
ĠH izen
her ical
all en
if ies
ul s
il a
il ation
il ities
em ed
ĠG ates
ĠG reen
ĠC o
Ġsh y
us c
us ive
us sion
Ġcom ets
Ġcom fort
el ess
qu air
ĠB essel
Ġex ch
ol ute
ac les
.... "
Ġpro c
Ġpro l
ous in
um ing
ard on
Ġso il
ĠW inds
ap es
os en
os ite
ĠF IG
ĠF irst
Ġal ter
Ġr ain
ĠL ambda
our n
Ġsa ving
Ġsp y
Ġsp ite
Ġsp herical
-- --
ĠPro s
ĠPro du
Ġint im
Ġwe b
Ġwe alth
Ġar c
ĠD ur
ĠD ra
ĠD em
ĠD ip
ĠD espite
Ġab rupt
Ġdo zen
cc ording
Ġdis cer
ĠE gy
ook ed
pt une
ĠR O
ĠR ep
Ġfe ared
Ġtw in
Ġle ather
Ġapp ly
Ġapp reci
Ġun h
Ġun us
Ġun ex
Ġun like
Ġro b
Ġli br
ab eth
ose ph
Ġfl an
Ġmore over
Ġcl im
ck ed
Ġgl are
Ġdist rict
Ġdist inction
ph ate
Ġgr in
Ġgr an
Ġacc ustomed
iz abeth
Ġfir ing
Ġpart ed
Ġpart ly
Ġconst itu
ru ary
co at
Ġcould n
ail ing
ĠV ol
ign ific
Ġpass engers
Ġ3 9
Ġpe as
Ġreg ret
Ġbel ief
Ġbel oved
Ġfound ation
Ġac res
Ġmill st
Ġknow ing
Ġchar ming
Ġchar itable
ĠNe ptune
Ġ5 1
Ġ5 6
Ġset tle
Ġprov ision
ĠCh rist
Ġdet ection
Ġcount ries
ĠAl p
Ġrec ent
Ġact ivity
Ġevery body
EN CE
Ġeff ici
Ġsub sc
Ġdef eated
Ġmin imum
Ġsent in
ĠK e
Ġref used
Ġadd itions
Ġright s
Ġinc omplete
Ġcol ors
Ġ6 7
Ġdiffer ences
Ġinclud es
Ġfin est
ars h
Ġ18 88
Ġtelesc opic
Ġequ in
Ġconf usion
Ġ9 1
Ġri g
Ġfort ifying
Ġfort ifications
Ġ10 2
Ġsw ing
Ġass umed
Ġass igned
Ġworld s
Ġ8 2
Ġbo ast
Ġbo iling
Ġfell ows
Ġroom s
Ġhor ror
Ġsol uble
Ġprodu cing
Ġhands ome
Ġir res
Ġaccess ible
app a
Ġtre as
Ġtre ason
Ġinf ant
Ġaff air
Ġaff ixed
Ġinv ari
Ġgener ous
Ġsuff ering
Ġgra v
Ġgra cious
Ġstre ams
Ġshort ly
sh aped
Ġsix th
Ġvo ices
olog ical
Ġtrans fer
Ġdoor way
Ġamong st
Ġopp osite
Ġwind ing
Ġwind ows
Ġfaint ly
Ġhapp iness
Ġexist ed
Ġreason able
Ġcomple x
ĠCap t
Ġcontin ually
Ġprop riet
soci ation
Ġkind s
Ġadm it
Ġdev ice
Ġcur tain
Ġsuccess fully
Ġsign s
Ġredu ctions
Ġformer ly
Ġstud ies
Ġstud ied
Ġtruth s
wh o
Ġte eth
Ġaccord ingly
Ġnorth ward
Ġneighb our
Ġeight y
Ġlo ved
Ġsto red
Ġpurs ue
Ġhon est
Ġdisc ont
Ġdisc uss
Ġdisc ussion
Ġprinci ples
Ġest im
Ġcapt ure
Ġ19 0
Wh o
Ġide as
Ġsle e
Ġpot ter
Ġsch ool
Ġburn er
Ġcast le
Ġder ive
Ġder ived
Ġbreak fast
Ġbrother s
Ġwid ow
Ġpun ch
ograph y
Ġneg ative
Ġabs or
Ġver sion
Ġident ification
Ġborn e
Ġcorn ers
Ġbelong s
Ġmechan ical
Ġbecom ing
Ġadmir able
Ġve ter
Ġhy per
Ġpreci ous
Ġfre ed
Ġmaterial s
Ġfle et
ober t
Ġfa ult
Ġdeal ing
Ġglim mer
Ġemb ark
Ġemb raced
Ġdiver sion
Ġexperiment al
Ġsor row
Ġran ks
Ġintrodu ction
ĠDIS C
Ġfier y
Ġsevent h
Ġmaintain ed
Ġmaintain ing
PL EMENT
Ġrad i
ATION S
com ing
Ġgun s
Ġblaz ing
Ġ188 1
Ġspr ang
ĠNE W
Ġpossib ility
Ġencoun ter
Ġsatisfact ion
Ġfright ened
Ġpor celain
Ġport ions
ĠSc ruff
Ġtwink ling
Ġsubsequ ently
Ġanx ious
Ġexcell ent
Ġexcell ence
Ġperil ous
Ġjud ge
Ġpriv ate
ĠEl izabeth
Ġfortun es
Ġaston ished
ĠQ ue
Ġbord er
Ġnet work
Ġvap our
ĠLanc ast
Ġcaus es
Ab out
Ġharm less
Ġstir ring
Ġcomr ade
Ġinterp reted
ENTI FIC
Ġanticip ated
Ġess ential
Ġinsect s
ĠPom fret
Ġune as
Ġliqu id
Ġdazz ling
ĠMir a
Ġcompon ents
ĠAlb any
Ġpurch ase
Ġcorrug ated
Ġsignific ance
Ġingen ious
Ġstatement s
Ġta vern
Ġtull e
umpt ion
Ġmanufact ure
Ġquiver ing
Ġoverwhel ming
Ġciv il
Ġstup endous
Ġvoy age
ĠBun sen
ĠOphiuch us
ĠChar les
Ġsummon ed
Ġninet een
hib ition
ĠTra quair
ĠErid anus
ĠJerse y
ĠSUP PLEMENT
Ġinquir y
Ġack now
Ġwides pread
Ġcran es
Ġlof ty
ĠTran quillity
ĠSCI ENTIFIC
ĠWinds or
ĠProdu ced
ĠEgy pt
) (
. ;
1 1
1 2
2 3
2 00
4 8
6 22
7 04
8 62
9 0
B et
C l
D awney
E A
H er
O L
O T
O ur
P T
P LA
Q U
R ight
R ichard
S h
S ir
S ome
U n
V ol
a it
b o
b ser
b led
b ec
c amp
c raft
d ge
d ition
d rew
e ge
e ors
f l
f rom
f lies
g the
h am
h orse
i as
i ge
k ward
l ar
l ink
l ambda
m e
m un
n a
n ines
o qu
p i
p ass
p ost
p ected
r ough
s ing
s al
t ion
t ical
v us
v est
v als
v oir
w ood
w ild
w yn
y ram
Ġt act
Ġt ied
Ġt err
Ġt ale
Ġa ide
in al
in ch
in ous
in ity
in ue
in arily
Ġo dd
Ġo wed
er ity
er ry
er ness
Ġw ound
Ġw iz
Ġw oke
Ġs an
Ġs hed
Ġs inking
re al
on is
at ical
at ives
en es
it or
Ġb rows
Ġf its
Ġf anc
Ġf uel
Ġh al
Ġh ind
Ġh amm
ou is
Ġm ag
Ġm aj
or thy
es h
Ġp arent
Ġp ounds
Ġp uzz
Ġin j
Ġto w
Ġto il
Ġto ils
an cial
Ġd ie
Ġd ub
Ġd rum
Ġd educt
ll en
as se
Ġl ic
Ġl ap
Ġl aughter
ro ll
Ġn ice
Ġe h
Ġhe els
Ġg em
Ġg ained
Ġre app
om al
om ical
om ini
al ing
al og
Ġst are
Ġst ayed
Ġst ern
ri ve
Ġwith drew
Ġis s
id s
ĠT R
am pl
ir able
ĠI RS
Ġas hes
ĠP A
ĠP isces
ter day
ĠA T
ĠA stronom
Ġan ec
Ġan alog
ĠS te
ĠS uddenly
ĠS END
ĠS everal
ĠH A
ĠH ouse
Ġha ught
Ġnot es
Ġnot ion
Ġsu itable
Ġsu llen
Ġcon j
Ġcon text
ra c
ra ged
il grim
em en
em an
ĠG ood
ĠG ulf
ĠC R
ĠC ould
ĠC oll
ĠC ompl
ĠC opyright
Ġsh out
Ġsh aring
Ġsh aped
us ing
Ġv iz
ĠM a
Ġ1 60
ĠB elt
ĠB erenice
Ġex ert
ist ic
ol ph
Ġpro hibition
ust rious
ĠW ell
ĠW ood
ĠW ater
ĠW olf
ĠW ORK
Ġde ed
Ġde eds
os ure
ĠF ar
ĠF ra
ĠF red
Ġr ic
Ġr ud
Ġr oused
ĠL ion
ĠL ear
ĠL ady
ĠL ibra
ĠL ouis
Ġsa ke
Ġwork ed
Ġsp end
Ġch o
Ġch op
Ġch osen
ak ers
ort ed
ort un
ort ex
ear ing
ear ch
ĠN J
ig ent
nt on
Ġint ent
Ġman eu
Ġ( $
ag on
ĠO P
ĠO h
ĠO ur
ĠO ber
ĠD ON
Ġab stract
Ġdis char
ĠE ND
ĠE IN
Ġob v
per ate
Ġag ency
Ġcomp are
Ġout dated
ĠR ain
ĠR EM
ĠR obert
Ġcan v
Ġper pet
Ġen joy
Ġen raged
nam o
nam ed
Ġle is
pl ains
Ġun m
Ġun pro
Ġun ique
Ġwhen ce
Ġli p
Ġli kes
Ġthan k
Ġwould st
Ġad ap
Ġim plied
Ġfl ed
Ġfl ow
Ġfl ashing
Ġfl ung
Ġfl esh
Ġtr ade
Ġtr ained
cl air
Ġgl itter
Ġqu ad
Ġqu aint
Ġmy thology
Ġkn ots
Ġsm iling
ĠY our
ĠU p
ĠU pon
ĠU TC
ĠU SA
Ġcomm er
Ġpre m
Ġpre y
Ġhand ker
Ġam mun
ĠIn ternal
ub ber
we ep
Ġj ump
Ġpo et
Ġpo cket
Ġsee king
so le
the less
the ta
Ġrep orts
Ġrep ute
Ġrep rodu
Ġsc ant
Ġind ign
Ġind isp
Ġcont empt
Ġcont ributions
si x
Ġres ign
Ġimp osed
ĠJ oseph
ren ce
Ġeven ings
ail ed
ĠV II
ĠV III
ĠSt ar
aw k
Ġcons pir
Ġret ired
Ġexp ected
Ġreg ulating
Ġpr ay
Ġra ise
Ġra ising
Ġdown ward
ens ions
Ġac ute
Ġdon ation
Ġdon ors
Ġmill ers
ĠAr atus
Ġspe ed
Ġmet eor
Ġsupp osing
Ġsec urity
Ġco ar
Ġco ff
Ġchar ities
Ġchar ges
Ġoper ation
Ġappear ances
Ġinst ant
Ġinst ruct
read able
Ġincl ude
Ġeye b
Ġrec on
Ġrec ollect
Ġact ed
Ġcent ral
Ġcar ries
Ġend ed
Ġfield s
omet er
Ġwar ning
ĠAd mir
Ġser ious
Ġser pent
Ġbr ings
Ġext ends
Ġext ending
ĠK B
ĠK IND
Ġinc ap
ific ial
az a
Ġ6 8
Ġ6 21
Ġpresent ing
ĠUn less
Ġfin ish
Ġfin ancial
Ġconf lict
Ġstr ate
Ġstr anger
Ġche cks
ĠInd ia
Ġmod ified
Ġmod ification
Ġrepresent ing
Ġfore most
Ġ10 3
Ġ10 5
In tern
Ġsw ift
Ġass ume
Th ou
Ġhor rible
AR K
Ġprot ection
Ġfam il
Ġmar ched
Ġstand ards
ĠRe venue
Ġremark s
ĠFrench men
Ġcir cles
CH AN
Ġill ustration
Ġill ustrious
Ġaff ections
Ġwa ved
Ġcor rupt
Ġinv al
Ġvol c
Ġed ition
Ġexper ienced
Ġhum ble
Ġstre ets
Ġgu ide
Ġvo id
Ġvisit ors
Ġappro x
Ġtrans form
che ster
Ġmer idian
Ġloc ations
Ġdoes n
Ġhapp en
Ġins ignific
Ġdel ay
Ġrel ief
Ġwant s
ĠOn ce
Ġcontin ue
Ġprop osed
ale t
Ġlim bs
Ġkind ly
Ġadm itted
Ġstri ke
Ġdev il
Ġcur ve
Ġpleas ed
Ġorigin ally
Ġorigin ator
Ġsign ed
Ġsign al
Ġredu ced
Ġfee ble
Ġtell s
Ġbra very
Ġoccas ions
Ġbrilli ance
Ġdest ined
Ġstud io
Ġlead er
Ġlead ers
Ġindic ates
Ġte chn
Ġaw kward
Ġconn ect
Ġsoft ly
Ġaccept ing
Ġpub lished
ĠAn y
Ġwal ks
Ġlo ving
Ġ0 704
Ġhur rying
Ġmist ake
Ġmist ress
Ġfair ly
ĠTre nton
Ġreve als
Ġexc itement
Ġtri p
Ġdr inking
Ġtou ching
Ġarrangement s
fect s
Ġburn ed
Ġremo val
Ġhelp ed
Ġfurn aces
go ing
Ġvict im
Ġenc oura
Ġroad s
ĠAndromeda e
Ġpaper work
Ġwid th
Ġdim ensions
Ġang le
ĠMont real
ĠMont clair
Ġauth ors
Ġwild erness
Ġprof its
Ġapart ments
ann in
Ġann ual
Ġann ounced
Ġhost ile
Ġdam age
Ġmechan ism
Ġunf ortun
Ġattack ed
Ġbook s
Ġrevol ving
Ġvast ly
Ġattend ant
Ġattend ants
Ġ30 3
Ġ50 1
Ġ187 2
Ġve get
Ġforg ive
Ġut il
Ġut most
Ġut tered
ĠDe cember
Ġmass ac
ĠSU N
ĠSU CH
Ġsharp ly
Ġdevelop ed
Ġchamber lain
Ġclot hed
Ġprevent ed
Ġunderstand ing
Ġfle w
Ġdistinct ly
Ġauthor ity
pro fit
Ġdre amed
Ġconcl usion
Ġstart led
Ġglim ps
Ġextrem ity
Ġdepart ure
Ġfing er
Ġdiver s
ĠBet ween
Ġadvent ures
Ġdesp air
ĠScorp ion
Ġdestroy ed
ĠCont ributions
ugg ed
Ġnin ety
Ġproject s
........................ .....
Ġsweep ing
Ġinqu ire
Ġsubst it
Ġsolic itation
ĠPl aza
Ġnews letter
Ġcorrespond ing
Ġcorrespond ence
Ġdelight ed
ĠDan iel
Ġfever ish
Ġblaz e
Ġmess age
Ġmess enger
Ġdust y
Ġattain ed
ĠMer ope
ĠNE G
Ġaddress es
Ġmusk ets
Ġsatisfact ory
Ġerr or
Ġlau ghed
Ġsusp ected
Ġuns olic
Ġprec ise
Ġdeser ted
Ġboil ers
Ġexhib ited
Ġfrequ ent
15 41
Ġcustom ary
Ġhealth y
Ġignor ant
Ġgrat itude
Ġpictures que
Ġaver age
Ġsalt s
Ġselect ed
ĠGree k
ĠLanc aster
Ġspark ling
Ġaccur ately
Ġsurv ive
Ġwaist coat
51 6
Ġfold s
Ġpull ed
ĠBe fore
ĠEm ail
Ġamb ition
Ġblank et
Ġcorre ct
Ġeduc ational
Ġsen sib
Ġamid st
Ġscout ing
92 88
pen nines
Ġwithdra wn
ĠTw ins
Ġanaly sis
ĠCast or
Ġvary ing
Ġgrate fully
Ġdepth s
Ġtrem endous
Is rael
ĠNear ly
Ġobsc ure
Ġdemonst rated
Ġhyp othes
Ġmathem atic
Mar g
cont act
Ġwis dom
Ġlink ed
Ġash amed
Ġhaz ard
Ġconver t
Ġvir us
ĠDu chess
Ġdiscipl ine
Ġplat form
ĠThom as
Ġsour ce
Ġbubb les
Ġdy namo
Ġnort heast
ĠGold ene
ĠCub a
Ġmol ten
ĠMoh awks
ĠWatch ung
Ġrul es
Ġmetall ic
Ġcorpor ation
ĠContinent al
Ġbron ze
ĠHann ah
Ġalter ation
ĠDip tera
Ġunus ual
Ġlibr ary
Ġdistrict s
Ġsubsc ribe
622 1541
yram id
Ġwiz ard
Ġhamm ers
Ġdeduct ible
Ġlic ensed
Ġanec d
ĠCompl iance
ĠDON ATIONS
Ġhandker chief
Ġammun ition
Intern ational
Ġ0704 2
Ġunsolic ited
Ġhypothes is
! )
" --
0 6
2 6
2 8
3 7
5 2
7 8
A m
A CT
B oth
C ol
C EMENT
D ED
D ENT
E L
E x
F U
H y
H ave
H aving
I VE
I MER
I TIVE
L IG
M en
M ean
N G
N or
N ew
N ITY
N ESS
P P
P h
P ub
P OSE
R AP
S ince
T A
T O
T ell
T auri
U AL
U BE
V ER
W NER
Y et
a ur
a ud
a fter
b et
b id
b our
b ook
c ar
c as
c ular
d o
d escription
e z
e per
f und
g el
g ies
g age
g ement
g ments
h oles
h aust
k in
k ill
l in
l im
l ton
m ail
m ission
m ah
m icron
n able
n ify
o v
o ff
p oint
r ater
r ating
r ained
r ubber
s ive
t t
t ate
t ies
t own
t ected
t ively
t ime
u yl
v ation
w ari
y gen
z y
Ġ rib
Ġ ice
Ġt ar
Ġt umb
Ġt annin
he mer
he tic
Ġa ce
in er
in ated
Ġo val
er es
er oy
Ġs ly
Ġs ection
Ġs its
Ġs ank
re y
re ction
re ene
re pid
on ce
on et
at hed
en o
en et
it ure
Ġb le
Ġb ank
Ġb ones
Ġb owing
Ġb erry
Ġf at
Ġf able
Ġf itting
Ġf iles
Ġc od
Ġc up
Ġh int
Ġh osp
Ġh unt
Ġh arsh
ou ch
ar c
Ġm ing
Ġm ent
Ġm ir
Ġm ast
Ġp al
Ġp et
Ġp ine
Ġp ier
Ġp uff
Ġp ouring
Ġp alace
Ġin acc
Ġto mah
an se
Ġd us
Ġd ull
Ġd ared
Ġd amp
Ġd ying
Ġd anced
Ġth ro
Ġth read
Ġth under
as ion
Ġl est
Ġl od
ic a
ic us
Ġn est
Ġn av
le gr
Ġe ther
Ġe ase
Ġe mer
Ġbe er
Ġbe et
Ġbe ings
Ġbe ams
Ġbe wild
Ġhe ed
st al
st ead
Ġg e
Ġg ate
Ġg ips
Ġg ift
Ġg arden
ent ral
ct ors
Ġre b
Ġre v
Ġre ver
Ġre ck
Ġre ne
Ġre lic
Ġre nown
ad s
ad v
al ian
Ġst ick
Ġst ubb
ce ta
ce nding
se c
se as
Ġwh ir
Ġwh ither
ri al
Ġis n
et ary
id ation
ĠT ry
ĠT aking
ĠT auri
ĠT eres
am ous
am ily
Ġu seless
Ġwas hed
ĠI F
ĠI ron
ur ate
Ġas ser
ĠP at
ĠP LE
ĠP UN
ĠP aste
ĠP alace
ĠP UR
ch anged
ĠA h
ĠA CT
ĠA pennines
Ġan vil
ĠS ections
ĠS TRI
ĠS earch
ain ted
ĠH ad
ĠH air
ĠH ave
ĠH amil
Ġha ven
her st
Ġnot ifies
Ġsu ited
Ġcon fer
Ġcon cent
all s
all el
ul ous
ul ate
ul ted
ĠThe ta
oo ped
em or
em nify
ĠG IVE
ĠG reene
th ink
th ird
th rac
ĠC ousin
Ġsh ake
Ġsh alt
Ġv ine
Ġv ice
Ġv ortex
Ġv alet
ĠM E
ĠM O
ĠM c
ĠM ess
ĠM od
ĠM ER
ĠM ission
est ing
est ead
Ġ1 Â½
ĠB ra
ĠB attle
ĠB UT
ĠB rad
ĠB iela
Ġwor se
Ġex agger
ol id
ol ation
ac ing
op us
op ern
Ġpro claim
ell ations
um ors
um ents
Ġso ber
ĠW ILL
ate au
Ġall ows
Ġall owing
Ġde let
os m
ĠF er
ĠF IT
ĠF OU
ĠF aure
ĠF inally
ass isted
Ġal as
un ted
Ġr ush
Ġr ubb
Ġr ugged
ĠL O
ĠL u
ĠL at
ĠL ess
ĠL iber
our nal
ant ing
Ġsa iling
Ġsp ell
Ġsp ies
Ġch ann
Ġch asm
Ġch ival
Ġch allen
Ġwill ing
ort ions
ĠPro of
ĠN ar
iv eness
ure ka
Ġk ill
Ġk il
Ġint ric
Ġman if
Ġman sion
Ġman ager
Ġ( "
ĠO ut
ĠO WNER
ĠD istribut
ĠD IRECT
ĠD omini
Ġme al
Ġme ek
Ġdis s
Ġdis pleas
ĠE u
ĠE ach
ĠE arl
ĠE TC
ĠE VEN
ĠE ureka
reat ing
Ġob sole
Ġpl ague
art s
Ġcomp act
Ġcomp ilation
Ġout post
ĠR ob
ĠR IGHT
ĠR UBE
Ġper f
Ġper cept
Ġper cent
Ġtw isted
Ġen velop
ud ing
Ġany way
ish man
Ġapp oint
Ġun ited
Ġun enforce
Ġun link
Ġun assisted
ĠHe aven
ab out
ab ih
Ġad ds
Ġtim id
Ġfl ows
Ġfl ashed
od ed
ĠIt alian
Ġgl ory
Ġgl ances
Ġdist ress
Ġkn ock
Ġkn ees
Ġey ed
Ġgo als
ĠY es
ĠY ORK
ĠU ND
ĠU mb
ĠU RAN
Ġform ations
Ġthen ce
iz ation
iz ens
Ġlike wise
Ġshe lls
Ġhand led
Ġrem em
Ġrem inded
ĠIn man
Ġover l
Ġover t
Ġover head
Ġatt ic
Ġatt itude
